{
  "!": 1,
  "!!": 4756,
  "!!!": 12241,
  "!!!!": 25698,
  "!\"": 10903,
  "!\"\"": 4667,
  "!'": 20930,
  "!)": 12809,
  "!.": 25395,
  "!..": 8976,
  "!...": 22995,
  "!Â»": 27164,
  "!âĢĿ": 11535,
  "\"": 2,
  "\"\"": 355,
  "\"\"\"": 10263,
  "\"\"\"\"": 46794,
  "\"\"'": 40113,
  "\"\"(": 39400,
  "\"\")": 18108,
  "\"\").": 48492,
  "\"\",": 3558,
  "\"\",\"\"": 34062,
  "\"\"-": 36646,
  "\"\".": 7294,
  "\"\"...": 32174,
  "\"\":": 24220,
  "\"\";": 29900,
  "\"\">": 28559,
  "\"\"|": 31129,
  "\"\"âĢ¦": 39724,
  "\"'": 17895,
  "\"-": 47092,
  "\"âĢľ": 47122,
  "#": 3,
  "#\"": 41305,
  "##": 36320,
  "$": 4,
  "$'": 45603,
  "%": 5,
  "&": 6,
  "&#": 46212,
  "'": 7,
  "''": 2873,
  "'',": 48641,
  "',": 8713,
  "'.": 20392,
  "'...": 40060,
  "'d": 465,
  "'m": 7547,
  "'s": 2602,
  "'t": 1021,
  "(": 8,
  "(!)": 30280,
  "(\"\"": 25552,
  "('": 31720,
  "((": 43071,
  "()": 25338,
  "();": 47906,
  ")": 9,
  ")\"": 9414,
  ")\"\"": 20836,
  ")'": 9745,
  ")(": 18174,
  "))": 9594,
  "),": 1552,
  ")-": 19253,
  ").": 1778,
  ").\"": 40472,
  "):": 6690,
  ");": 7655,
  ")âĢĻ": 30965,
  "*": 10,
  "*)": 36304,
  "**": 2480,
  "***": 14327,
  "****": 9963,
  "*****": 37420,
  "********": 32883,
  "+": 11,
  "++": 31690,
  ",": 12,
  ",\"": 26966,
  ",\"\"": 4479,
  ",'": 29680,
  ",(": 47453,
  ",,": 18187,
  ",.": 31072,
  ",...": 17468,
  ",Â»": 22374,
  ",âĢ¦": 47630,
  ",âĢĿ": 9598,
  "-": 13,
  "-\"\"": 27727,
  "-$": 47306,
  "-)": 13133,
  "-,": 40408,
  "--": 3335,
  "---": 38865,
  "----": 6940,
  "--------": 13183,
  "----------------": 26822,
  "->": 47583,
  ".": 14,
  ".!": 42713,
  ".\"": 827,
  ".\"\"": 1091,
  ".\"\"\"": 7153,
  ".\"\"(": 45289,
  ".\"\".": 39855,
  ".\"\"[": 35725,
  ".'": 4373,
  ".''": 12342,
  ".(": 9819,
  ".)": 3108,
  ".)'": 38939,
  ".),": 20488,
  ".).": 31231,
  ".*": 35377,
  ".,": 3308,
  ".-": 16473,
  "..": 418,
  "..!": 31232,
  "..\"": 18209,
  "..\"\"": 31841,
  "...": 706,
  "...\"": 5268,
  "...\"\"": 9344,
  "...'": 45013,
  "...)": 30844,
  "....": 1175,
  "....\"": 46528,
  ".....": 17751,
  "......": 28956,
  ".......": 42285,
  "........": 2100,
  "................": 3796,
  "........................": 37802,
  "................................": 7220,
  "................................................................": 16862,
  "...]": 24139,
  "...Â»": 41609,
  "...âĢĿ": 30357,
  "./": 42494,
  ".:": 17472,
  ".;": 32885,
  ".?": 38132,
  ".[": 7863,
  ".]": 44683,
  ".|": 2465,
  ".}": 18949,
  ".Â»": 10807,
  ".âĢ¦": 48868,
  ".âĢĻ": 17874,
  ".âĢĿ": 3568,
  ".âĢĿ\"": 49140,
  "/": 15,
  "//": 2821,
  "0": 16,
  "00": 582,
  "000": 1815,
  "0000": 22038,
  "001": 23422,
  "01": 3183,
  "02": 3482,
  "03": 3176,
  "04": 3281,
  "05": 2999,
  "06": 3311,
  "07": 3352,
  "08": 3344,
  "09": 3253,
  "1": 17,
  "10": 1377,
  "100": 4412,
  "1000": 20167,
  "101": 16341,
  "102": 32687,
  "103": 34264,
  "104": 32529,
  "105": 33414,
  "106": 38781,
  "107": 38979,
  "108": 37700,
  "1080": 47182,
  "109": 40238,
  "11": 1889,
  "110": 24632,
  "111": 36354,
  "112": 33219,
  "113": 44704,
  "114": 42263,
  "115": 38214,
  "116": 43369,
  "117": 42363,
  "118": 41883,
  "119": 40490,
  "12": 1764,
  "120": 20264,
  "1200": 46431,
  "121": 32642,
  "122": 36808,
  "123": 24704,
  "124": 45798,
  "125": 30391,
  "126": 46727,
  "127": 46287,
  "128": 35487,
  "129": 42651,
  "13": 2596,
  "130": 26989,
  "131": 42261,
  "135": 40428,
  "136": 46704,
  "14": 2516,
  "140": 32463,
  "144": 49478,
  "145": 45453,
  "15": 2101,
  "150": 16913,
  "155": 47930,
  "16": 2556,
  "160": 32034,
  "168": 44905,
  "17": 2656,
  "170": 39329,
  "175": 46719,
  "18": 2316,
  "180": 30387,
  "183": 46509,
  "19": 1318,
  "190": 44841,
  "1920": 43409,
  "1950": 42181,
  "1960": 37159,
  "1970": 35873,
  "1973": 49824,
  "1974": 45840,
  "1975": 49357,
  "1978": 47649,
  "1979": 46825,
  "198": 8039,
  "1980": 29221,
  "1981": 46111,
  "1982": 41696,
  "1983": 38994,
  "1984": 38938,
  "1985": 39562,
  "1986": 40035,
  "1987": 38996,
  "1988": 38322,
  "1989": 35656,
  "199": 6500,
  "1990": 26571,
  "1991": 33813,
  "1992": 31679,
  "1993": 32391,
  "1994": 29724,
  "1995": 28689,
  "1996": 29156,
  "1997": 27867,
  "1998": 26549,
  "1999": 22985,
  "2": 18,
  "20": 666,
  "200": 2492,
  "2000": 14123,
  "2001": 20372,
  "2002": 18712,
  "2003": 17945,
  "2004": 15847,
  "2005": 14615,
  "2006": 12851,
  "2007": 11077,
  "2008": 9707,
  "2009": 9214,
  "201": 1160,
  "2010": 8592,
  "2011": 8107,
  "2012": 7405,
  "2013": 6965,
  "2014": 6528,
  "2015": 5970,
  "2016": 5381,
  "2017": 4668,
  "2018": 4298,
  "2019": 4214,
  "2020": 3886,
  "2021": 3739,
  "2022": 5981,
  "2023": 31389,
  "21": 1198,
  "210": 39534,
  "212": 17381,
  "216": 22749,
  "217": 41321,
  "22": 1620,
  "220": 35333,
  "224": 46977,
  "225": 49568,
  "226": 49500,
  "23": 2681,
  "230": 45428,
  "231": 42416,
  "232": 38555,
  "237": 43154,
  "24": 2498,
  "240": 38980,
  "25": 2559,
  "250": 19698,
  "252": 35614,
  "256": 44622,
  "26": 3290,
  "27": 3366,
  "28": 3275,
  "280": 48836,
  "29": 3520,
  "3": 19,
  "30": 1922,
  "300": 11750,
  "3000": 49678,
  "31": 4499,
  "32": 4911,
  "320": 42912,
  "33": 4401,
  "330": 47775,
  "34": 4737,
  "35": 3911,
  "350": 32211,
  "36": 4540,
  "360": 32927,
  "365": 29408,
  "37": 4866,
  "38": 4852,
  "39": 4840,
  "4": 20,
  "40": 3560,
  "400": 11313,
  "41": 6140,
  "42": 6081,
  "43": 6058,
  "44": 4477,
  "45": 3986,
  "450": 39638,
  "456": 38276,
  "46": 4988,
  "47": 5266,
  "48": 5038,
  "49": 5328,
  "5": 21,
  "50": 1739,
  "500": 7570,
  "5000": 43177,
  "51": 6627,
  "52": 6615,
  "53": 6141,
  "54": 5871,
  "55": 4573,
  "550": 47524,
  "56": 5898,
  "57": 5201,
  "58": 5827,
  "59": 5895,
  "6": 22,
  "60": 3831,
  "600": 17823,
  "605": 31364,
  "61": 10542,
  "62": 11659,
  "63": 10834,
  "64": 9330,
  "65": 5604,
  "650": 41429,
  "66": 7782,
  "67": 8793,
  "68": 8095,
  "69": 8541,
  "698": 41777,
  "7": 23,
  "70": 4695,
  "700": 24913,
  "71": 10531,
  "72": 10473,
  "73": 11463,
  "74": 11044,
  "75": 5462,
  "750": 35098,
  "76": 9943,
  "77": 7961,
  "78": 5990,
  "79": 9794,
  "8": 24,
  "80": 3748,
  "800": 19091,
  "81": 13414,
  "82": 13973,
  "83": 14051,
  "84": 13765,
  "85": 10611,
  "850": 43991,
  "86": 12078,
  "87": 13545,
  "88": 9415,
  "89": 11265,
  "9": 25,
  "90": 4632,
  "900": 27849,
  "91": 15223,
  "92": 14469,
  "93": 13793,
  "94": 14410,
  "95": 9028,
  "96": 13391,
  "97": 13320,
  "975": 44792,
  "978": 38352,
  "98": 10141,
  "99": 5073,
  "999": 47415,
  ":": 26,
  ":\"": 21317,
  ":\"\"": 17616,
  ":#": 25031,
  ":(": 35638,
  ":)": 6479,
  ":))": 22735,
  ":)))": 37909,
  ":-": 39766,
  ":.": 47996,
  ":...": 42356,
  "://": 2914,
  "::": 21697,
  ":|": 37332,
  ";": 27,
  ";\"": 41093,
  ";\"\"": 43170,
  "<": 28,
  "</": 25310,
  "<|endoftext|>": 0,
  "=": 29,
  "=\"\"": 5654,
  "=\"\"#": 41580,
  "==": 16927,
  "====": 32470,
  ">": 30,
  "><": 49838,
  ">>": 24566,
  "?": 31,
  "?!": 33907,
  "?\"": 12026,
  "?\"\"": 2855,
  "?\"\",": 46122,
  "?'": 11863,
  "?''": 38952,
  "?)": 24547,
  "?,": 21462,
  "?.": 30819,
  "?..": 19132,
  "?...": 36209,
  "??": 7918,
  "???": 31472,
  "????": 28742,
  "?|": 38052,
  "?Â»": 18162,
  "?âĢĻ": 45889,
  "?âĢĿ": 7533,
  "@": 32,
  "A": 33,
  "AA": 7882,
  "AAAA": 49685,
  "AAT": 17681,
  "AB": 1925,
  "ABA": 27504,
  "ABAN": 39199,
  "ABD": 4804,
  "ABER": 5711,
  "ABI": 35067,
  "ABZON": 31543,
  "ABÄ°L": 48459,
  "ABÄ°LÄ°R": 22235,
  "AC": 3524,
  "ACA": 43204,
  "ACAK": 7949,
  "ACAÄŀ": 22132,
  "ACAÄŀIZ": 30864,
  "ACI": 16886,
  "ACK": 49120,
  "AD": 1988,
  "ADA": 13461,
  "ADAKÄ°": 48896,
  "ADAN": 29986,
  "ADANA": 43469,
  "ADE": 34157,
  "ADEM": 46625,
  "ADI": 12628,
  "ADIR": 38549,
  "ADOLU": 40254,
  "AF": 5111,
  "AFA": 32449,
  "AFAD": 47002,
  "AG": 11937,
  "AH": 3181,
  "AHA": 16234,
  "AHAT": 36706,
  "AI": 49330,
  "AJ": 19151,
  "AK": 1341,
  "AKP": 11585,
  "AKÄ°": 39453,
  "AL": 1317,
  "ALAN": 21321,
  "ALAR": 8897,
  "ALARI": 14830,
  "ALE": 40477,
  "ALET": 39574,
  "ALI": 7819,
  "ALIK": 16630,
  "ALIM": 36817,
  "ALIÅŀ": 11058,
  "ALL": 32965,
  "ALLAH": 32444,
  "ALT": 16225,
  "ALTIN": 27012,
  "ALÄ°": 22482,
  "ALÄ°YET": 36454,
  "AM": 1690,
  "AMA": 14354,
  "AMAN": 12998,
  "AMAZ": 31424,
  "AMI": 33831,
  "AMIZ": 48698,
  "AMP": 27699,
  "AMPÄ°YON": 44934,
  "AN": 898,
  "ANA": 15111,
  "ANAK": 37863,
  "ANBUL": 9835,
  "AND": 16897,
  "ANDAÅŀ": 34730,
  "ANI": 14218,
  "ANIN": 27813,
  "ANK": 14333,
  "ANKARA": 21732,
  "ANLAR": 14924,
  "ANLI": 12641,
  "ANLIUR": 44895,
  "ANS": 11113,
  "ANT": 23414,
  "ANTALYA": 35192,
  "AP": 2701,
  "AR": 855,
  "ARA": 21715,
  "ARAK": 42050,
  "ARASI": 35632,
  "ARBAKIR": 37577,
  "ARET": 13762,
  "ARI": 6258,
  "ARK": 11813,
  "ART": 11697,
  "ARYA": 50132,
  "AS": 1618,
  "ASA": 22495,
  "ASAR": 23664,
  "ASAY": 31393,
  "ASAYFA": 50006,
  "ASI": 4593,
  "ASINA": 45482,
  "ASINDA": 25594,
  "ASINI": 47804,
  "ASK": 45123,
  "AST": 22497,
  "ASYA": 45029,
  "ASYON": 14463,
  "AT": 1536,
  "ATA": 21913,
  "ATE": 31916,
  "ATI": 10936,
  "ATIR": 19982,
  "ATO": 8270,
  "ATÃĸR": 47388,
  "ATÃľRK": 26591,
  "ATÄ°F": 48689,
  "ATÄ°K": 32145,
  "AV": 4040,
  "AVA": 20180,
  "AVM": 46616,
  "AVUZ": 40653,
  "AVÄ°": 43096,
  "AX": 36800,
  "AY": 1694,
  "AYA": 9711,
  "AYAN": 32898,
  "AYD": 44441,
  "AYDIN": 40431,
  "AYI": 14232,
  "AYIN": 10885,
  "AYLAÅŀ": 26315,
  "AYÄ°": 32934,
  "AZ": 2660,
  "AZAN": 43634,
  "AZAR": 18943,
  "AZI": 22312,
  "Ab": 7955,
  "Abdullah": 26596,
  "AbdÃ¼l": 40751,
  "Abi": 43970,
  "Abone": 35615,
  "Ac": 11388,
  "Acaba": 30351,
  "Acil": 29224,
  "AcÄ±": 33279,
  "Ad": 4213,
  "Ada": 28195,
  "Adalet": 18993,
  "Adam": 19801,
  "Adana": 10549,
  "Aday": 28409,
  "Adem": 49334,
  "Adet": 34654,
  "Adil": 47564,
  "Admin": 36247,
  "Adnan": 39278,
  "Adres": 20555,
  "AdsÄ±z": 29548,
  "Advisor": 18378,
  "AdÄ±": 33454,
  "AdÄ±m": 23478,
  "AdÄ±nÄ±z": 38957,
  "AdÄ±yaman": 23829,
  "Af": 8785,
  "Afgan": 32457,
  "Afganistan": 37377,
  "Afrika": 32777,
  "Afyon": 23202,
  "Afyonkarahisar": 34529,
  "Ag": 43190,
  "Ah": 6133,
  "Ahmed": 47465,
  "Ahmet": 12264,
  "AhÅŁap": 40767,
  "Ail": 21881,
  "Aile": 15059,
  "Air": 34459,
  "Aj": 38116,
  "Ak": 3277,
  "Akadem": 33668,
  "Akademik": 44597,
  "Akbank": 40919,
  "Akdeniz": 22864,
  "Akhisar": 48360,
  "Akl": 38605,
  "Aksaray": 33364,
  "Aktif": 36549,
  "AkÄ±l": 42542,
  "AkÄ±llÄ±": 18048,
  "AkÅŁam": 23665,
  "Al": 2062,
  "Alan": 14854,
  "Alanya": 25754,
  "Alb": 29062,
  "Alev": 30246,
  "Alex": 34000,
  "Ali": 9492,
  "Alkol": 40286,
  "All": 36867,
  "Allah": 6049,
  "Alman": 7407,
  "Almanya": 10122,
  "Alp": 46724,
  "Alt": 14226,
  "Altay": 49386,
  "Alternatif": 39493,
  "AltÄ±": 43680,
  "AltÄ±n": 11359,
  "AlÄ±": 47577,
  "AlÄ±nan": 27327,
  "AlÄ±ntÄ±": 35847,
  "AlÄ±ÅŁ": 25001,
  "AlÄ±ÅŁveriÅŁ": 34870,
  "Am": 11457,
  "Ama": 6274,
  "Amac": 38767,
  "AmacÄ±mÄ±z": 49975,
  "Aman": 33311,
  "Amasya": 37299,
  "Amazon": 32958,
  "AmaÃ§": 37886,
  "Ameliyat": 36490,
  "Amer": 7986,
  "Amerik": 13543,
  "Amerika": 13788,
  "AmerikalÄ±": 33779,
  "Amerikan": 18701,
  "An": 1405,
  "Ana": 4191,
  "Anadolu": 12299,
  "Anahtar": 22769,
  "Anal": 39061,
  "Analiz": 46554,
  "Anasayfa": 4228,
  "Anayasa": 24734,
  "Ancak": 6074,
  "And": 12290,
  "Android": 16399,
  "Ankara": 5938,
  "Anket": 36880,
  "Anlam": 45358,
  "Anlat": 42401,
  "AnlaÅŁ": 38425,
  "Ann": 14311,
  "Anne": 15594,
  "Annem": 41353,
  "Anonim": 45266,
  "Ant": 42322,
  "Antalya": 9118,
  "Anti": 30598,
  "Antik": 40233,
  "AnÄ±": 47898,
  "Ap": 32758,
  "App": 8869,
  "Apple": 13592,
  "Ar": 2043,
  "Ara": 18282,
  "Arab": 23793,
  "Araba": 40193,
  "AralÄ±k": 16523,
  "Arama": 21829,
  "Arap": 20819,
  "AraÃ§": 17947,
  "AraÅŁtÄ±r": 12788,
  "AraÅŁtÄ±rma": 27570,
  "Arda": 29421,
  "Ardahan": 48080,
  "ArdÄ±ndan": 22786,
  "Ark": 33692,
  "Arka": 34957,
  "ArkadaÅŁ": 10967,
  "ArkadaÅŁlar": 18580,
  "Arnavut": 42649,
  "Art": 19247,
  "Artvin": 33623,
  "ArtÄ±k": 10859,
  "ArÄ±": 40967,
  "ArÅŁiv": 23591,
  "As": 4312,
  "Asay": 38758,
  "AsayiÅŁ": 39216,
  "Asgari": 35195,
  "Asker": 25717,
  "Askeri": 39051,
  "Aslan": 33418,
  "AslÄ±": 45169,
  "AslÄ±nda": 11168,
  "Ast": 35306,
  "Astr": 43926,
  "Asya": 31214,
  "AsÄ±l": 31782,
  "At": 5929,
  "Ata": 50233,
  "Atak": 38813,
  "AtatÃ¼rk": 12579,
  "AtaÅŁ": 45960,
  "AtaÅŁehir": 48093,
  "AteÅŁ": 30322,
  "Aut": 42510,
  "Av": 4353,
  "Avrup": 49776,
  "Avrupa": 6963,
  "Avukat": 28204,
  "Avust": 19037,
  "Avustralya": 31466,
  "Avusturya": 36197,
  "Ay": 2484,
  "Ayak": 35226,
  "Ayar": 41908,
  "AydÄ±n": 12091,
  "AylÄ±k": 42684,
  "Aynen": 50068,
  "AynÄ±": 9392,
  "Ayr": 25439,
  "AyrÄ±ca": 5720,
  "Ayv": 48667,
  "AyÅŁe": 36843,
  "Az": 11374,
  "Azerbaycan": 24288,
  "Aziz": 28652,
  "AÃ§": 13996,
  "AÃ§Ä±k": 8105,
  "AÃ§Ä±klama": 31824,
  "AÃ§Ä±klamada": 24243,
  "AÃ§Ä±lÄ±ÅŁ": 28677,
  "AÃĩ": 8660,
  "AÄŀ": 4164,
  "AÄŀI": 19795,
  "AÄŁ": 9985,
  "AÄŁaÃ§": 43951,
  "AÄŁrÄ±": 25054,
  "AÄŁustos": 18547,
  "AÄŁÄ±r": 25532,
  "AÄŁÄ±z": 40189,
  "AÅŀ": 2137,
  "AÅŀA": 41937,
  "AÅŀTIR": 29455,
  "AÅŁ": 6100,
  "AÅŁaÄŁÄ±": 12607,
  "AÅŁaÄŁÄ±da": 28984,
  "AÅŁaÄŁÄ±daki": 21440,
  "AÅŁk": 18382,
  "AÅŁÄ": 37777,
  "AÅŁÄ±": 37788,
  "AÅŁÄ±rÄ±": 30196,
  "B": 34,
  "BA": 8304,
  "BAH": 28589,
  "BAHÃĩE": 47634,
  "BAK": 17282,
  "BAKAN": 35288,
  "BAKIR": 35231,
  "BAL": 36031,
  "BAN": 24603,
  "BANK": 49623,
  "BAR": 25781,
  "BAS": 38331,
  "BAT": 44918,
  "BAY": 26785,
  "BAÅŀ": 11773,
  "BAÅŀKAN": 20496,
  "BB": 9156,
  "BBC": 46151,
  "BC": 26243,
  "BD": 30446,
  "BE": 25007,
  "BEK": 46526,
  "BEL": 33202,
  "BEN": 26859,
  "BER": 22925,
  "BET": 20290,
  "BEY": 34726,
  "BI": 22170,
  "BIST": 36177,
  "BL": 35628,
  "BM": 5042,
  "BMM": 6523,
  "BN": 34935,
  "BO": 23695,
  "BOL": 22636,
  "BP": 26701,
  "BR": 18154,
  "BRIS": 46477,
  "BS": 17316,
  "BT": 29249,
  "BTC": 23629,
  "BU": 14214,
  "BUL": 9168,
  "BUR": 18349,
  "BURSA": 35807,
  "BY": 49933,
  "Ba": 41479,
  "Bab": 13339,
  "Baba": 25675,
  "Babam": 41275,
  "Back": 42737,
  "Bah": 8202,
  "Bahar": 33990,
  "Bahis": 10766,
  "BahÃ§": 36892,
  "BahÃ§e": 26897,
  "BahÃ§eli": 27925,
  "Bak": 5022,
  "Bakan": 9808,
  "BakanlÄ±k": 29786,
  "Bakara": 38619,
  "BakÄ±n": 37336,
  "BakÄ±r": 33796,
  "BakÄ±rkÃ¶y": 47828,
  "Bal": 13249,
  "Balkan": 45637,
  "BalÄ±k": 13369,
  "BalÄ±kesir": 20336,
  "Ban": 15378,
  "Bana": 13611,
  "Bank": 11811,
  "Banka": 27168,
  "BankacÄ±lÄ±k": 49782,
  "Bankalar": 50195,
  "Banyo": 46465,
  "Bar": 9077,
  "BartÄ±n": 35093,
  "BarÄ±ÅŁ": 21242,
  "Bas": 13137,
  "Basit": 32080,
  "Basketbol": 39582,
  "BasÄ±n": 20936,
  "Bat": 14278,
  "Batman": 27299,
  "BatÄ±": 17931,
  "Bavul": 18054,
  "Bay": 8061,
  "Bayan": 29815,
  "Bayburt": 41037,
  "Bayrak": 38061,
  "Bayram": 19557,
  "Bazen": 20835,
  "BazÄ±": 8732,
  "BaÄŁ": 9941,
  "BaÄŁÄ±msÄ±z": 40560,
  "BaÅŁ": 3882,
  "BaÅŁak": 27604,
  "BaÅŁakÅŁehir": 38163,
  "BaÅŁar": 19909,
  "BaÅŁarÄ±": 39977,
  "BaÅŁarÄ±lÄ±": 28378,
  "BaÅŁbakan": 10955,
  "BaÅŁk": 5737,
  "BaÅŁka": 17816,
  "BaÅŁkan": 8002,
  "BaÅŁkent": 35586,
  "BaÅŁlangÄ±Ã§": 25356,
  "BaÅŁta": 31442,
  "BaÅŁvur": 18631,
  "BaÅŁvuru": 26156,
  "Be": 23780,
  "Beb": 25540,
  "Bebek": 15928,
  "Bed": 40905,
  "Bedava": 38778,
  "Beden": 39525,
  "Bek": 16415,
  "Bel": 5025,
  "Belediy": 27322,
  "Belediye": 14639,
  "Belir": 43901,
  "Belirli": 39873,
  "Belirt": 47697,
  "Belki": 17032,
  "Belli": 44273,
  "BelÃ§ika": 36574,
  "Ben": 2524,
  "Bence": 18358,
  "Bende": 24496,
  "Beni": 16348,
  "Benim": 8333,
  "Benz": 28788,
  "Benzer": 20187,
  "Ber": 12515,
  "Berk": 42269,
  "Berlin": 37249,
  "Berry": 45854,
  "Bes": 25458,
  "Beslenme": 40966,
  "Best": 43323,
  "Bet": 6534,
  "Bets": 37118,
  "Bey": 7331,
  "Beyaz": 13513,
  "Beyin": 36363,
  "Beykoz": 43784,
  "BeyoÄŁlu": 44867,
  "BeÄŁen": 10827,
  "BeÄŁenme": 22501,
  "BeÅŁ": 20346,
  "BeÅŁiktaÅŁ": 10186,
  "Bi": 23968,
  "Big": 45568,
  "Bil": 4434,
  "BildiÄŁiniz": 39073,
  "Bilecik": 32900,
  "Bilet": 50152,
  "Bilg": 12727,
  "Bilgi": 17206,
  "Bilgisayar": 16236,
  "Bilim": 12640,
  "Bilimsel": 42192,
  "Bilin": 18692,
  "BilindiÄŁi": 24796,
  "BiliÅŁim": 43697,
  "Bilm": 40329,
  "Bin": 11336,
  "Binance": 49721,
  "BingÃ¶l": 34091,
  "Binlerce": 45068,
  "Binomo": 33724,
  "Bir": 1464,
  "Biraz": 19773,
  "Birbir": 29180,
  "Birden": 36617,
  "Bireysel": 34207,
  "Biri": 44081,
  "Birinci": 21607,
  "Birincisi": 48829,
  "BirkaÃ§": 23734,
  "BirleÅŁik": 27839,
  "BirleÅŁmiÅŁ": 31946,
  "Birlik": 43425,
  "Birlikte": 42525,
  "BirÃ§ok": 14124,
  "Bis": 49718,
  "Bisiklet": 37519,
  "Bit": 7454,
  "Bitcoin": 11951,
  "Bitlis": 37206,
  "Biy": 25363,
  "Biz": 3722,
  "Bizde": 42750,
  "Bize": 16778,
  "Bizi": 23598,
  "Bizim": 9804,
  "Bizler": 23531,
  "Bkz": 41079,
  "Bl": 16169,
  "Black": 28655,
  "Blo": 49572,
  "Blog": 15856,
  "Blu": 32962,
  "Bo": 28004,
  "Bodrum": 20063,
  "Bol": 23863,
  "Bolu": 25367,
  "Bon": 22346,
  "Bonus": 35212,
  "Book": 25256,
  "Bor": 9907,
  "Borsa": 22804,
  "BorÃ§": 37946,
  "Bos": 47502,
  "Bosna": 48435,
  "Bot": 45000,
  "Box": 42378,
  "Boy": 16599,
  "Boyut": 41236,
  "Boz": 21147,
  "BoÄŁaz": 24819,
  "BoÄŁaziÃ§i": 41794,
  "BoÅŁ": 20603,
  "Br": 13129,
  "Brez": 31407,
  "Brezilya": 35927,
  "Brit": 50256,
  "Bron": 48472,
  "Bu": 987,
  "BugÃ¼n": 5225,
  "BugÃ¼ne": 25943,
  "BugÃ¼nkÃ¼": 40661,
  "Buh": 37418,
  "Bul": 10861,
  "Bulgar": 30264,
  "Bulgaristan": 35589,
  "Bulun": 43857,
  "Bulut": 40582,
  "Bun": 13623,
  "Buna": 13227,
  "Bundan": 15458,
  "Bunlar": 15976,
  "Bunlardan": 42100,
  "BunlarÄ±": 31268,
  "BunlarÄ±n": 23764,
  "Bunu": 10946,
  "Bunun": 6610,
  "Bununla": 17563,
  "Bur": 3350,
  "Burada": 9199,
  "Buradaki": 39459,
  "Buradan": 34037,
  "BuradasÄ±nÄ±z": 41350,
  "Burak": 31179,
  "BurasÄ±": 30900,
  "Buraya": 31650,
  "Burdur": 38005,
  "Bursa": 8598,
  "Bursaspor": 31523,
  "Burun": 37887,
  "Bus": 48146,
  "But": 43707,
  "Buy": 44414,
  "Buz": 29632,
  "By": 15553,
  "BÃ¶": 30579,
  "BÃ¶brek": 46818,
  "BÃ¶l": 8828,
  "BÃ¶lg": 16092,
  "BÃ¶lge": 32348,
  "BÃ¶lgede": 41519,
  "BÃ¶lgesel": 42153,
  "BÃ¶lÃ¼m": 19209,
  "BÃ¶yl": 32897,
  "BÃ¶yle": 9821,
  "BÃ¶ylece": 20078,
  "BÃ¼l": 30457,
  "BÃ¼lent": 33811,
  "BÃ¼t": 41289,
  "BÃ¼tÃ¼n": 9879,
  "BÃ¼y": 29943,
  "BÃ¼yÃ¼k": 6293,
  "BÃ¼yÃ¼kÅŁehir": 17498,
  "BÃĸL": 45774,
  "BÃľY": 39585,
  "BÃľYÃľK": 43637,
  "BÄ°L": 21991,
  "BÄ°M": 48047,
  "BÄ°R": 12384,
  "BÄ°S": 45930,
  "BÄ°T": 14398,
  "BÄ°TAK": 16372,
  "BÄ°Z": 39137,
  "BÄ±rak": 39377,
  "C": 35,
  "CA": 12145,
  "CAD": 24335,
  "CAK": 23937,
  "CAN": 18785,
  "CAR": 47844,
  "CB": 15987,
  "CC": 20923,
  "CD": 13639,
  "CE": 8313,
  "CEK": 35642,
  "CEL": 8533,
  "CEVAP": 47283,
  "CH": 15727,
  "CHP": 5888,
  "CI": 5522,
  "CILIK": 49913,
  "CK": 21898,
  "CM": 17556,
  "CN": 24847,
  "CO": 11200,
  "COM": 21017,
  "COVID": 35524,
  "CP": 37295,
  "CR": 28279,
  "CRET": 21666,
  "CS": 39162,
  "CT": 48335,
  "CU": 12591,
  "CUMHUR": 45706,
  "Cal": 44906,
  "Cam": 17601,
  "Cami": 46300,
  "Can": 12522,
  "CanlÄ±": 13006,
  "CanÄ±m": 38933,
  "Cap": 33807,
  "Car": 18691,
  "Card": 46244,
  "Cas": 47230,
  "Casino": 20559,
  "Ceb": 48312,
  "Cel": 48212,
  "Cem": 17434,
  "Cemal": 48885,
  "Cen": 17873,
  "Cengiz": 42456,
  "Cennet": 43339,
  "Cep": 19653,
  "Ces": 48659,
  "Cev": 7834,
  "Cevap": 9716,
  "Cevapla": 19573,
  "Cez": 34707,
  "Ceza": 30718,
  "Ch": 9518,
  "Char": 35931,
  "Chat": 36756,
  "Chef": 42236,
  "Cih": 24177,
  "Cihaz": 32095,
  "Cilt": 22410,
  "Cin": 28469,
  "Cinsel": 36630,
  "Cloud": 33868,
  "Co": 18372,
  "Coin": 32215,
  "Cok": 49575,
  "Col": 28679,
  "Cola": 49392,
  "Com": 11481,
  "Con": 13495,
  "Continue": 42024,
  "Cook": 45284,
  "Copyright": 35080,
  "Cor": 22378,
  "Corona": 45634,
  "Covid": 18646,
  "CoÄŁraf": 31610,
  "CoÄŁrafya": 42690,
  "Cuma": 22716,
  "Cumartesi": 30243,
  "Cumhur": 4681,
  "CumhurbaÅŁkan": 36491,
  "CumhurbaÅŁkanlÄ±ÄŁÄ±": 25286,
  "CumhurbaÅŁkanÄ±": 7444,
  "Cumhuriyet": 10935,
  "Cy": 49768,
  "CÃľ": 20223,
  "CÄ°": 9910,
  "CÄ°H": 44337,
  "CÄ°LER": 30281,
  "D": 36,
  "DA": 2791,
  "DAK": 14237,
  "DAKÄ°": 22699,
  "DAL": 49970,
  "DAM": 49679,
  "DAN": 6206,
  "DANA": 48793,
  "DAR": 20234,
  "DAY": 41540,
  "DAÄŀ": 31579,
  "DB": 21001,
  "DC": 27311,
  "DD": 19682,
  "DE": 2541,
  "DEK": 34340,
  "DEKÄ°": 24592,
  "DEM": 7929,
  "DEMÄ°R": 26483,
  "DEN": 5800,
  "DENÄ°Z": 41859,
  "DER": 10636,
  "DES": 43766,
  "DET": 42889,
  "DEV": 24416,
  "DEÅŀ": 39661,
  "DF": 10736,
  "DH": 23974,
  "DHA": 17209,
  "DI": 5075,
  "DIA": 42772,
  "DIK": 32792,
  "DIM": 20148,
  "DIN": 17179,
  "DIR": 9110,
  "DIZ": 28458,
  "DK": 10476,
  "DL": 42726,
  "DM": 42387,
  "DO": 15913,
  "DOÄŀ": 15968,
  "DOÄŀAN": 22487,
  "DP": 4286,
  "DPR": 37786,
  "DR": 16687,
  "DS": 12138,
  "DSÃĸ": 48580,
  "DT": 42255,
  "DU": 6763,
  "DUK": 48317,
  "DUR": 19454,
  "DV": 8722,
  "Da": 32164,
  "Dah": 39009,
  "Daha": 4559,
  "Dak": 27377,
  "Dakika": 31668,
  "Dal": 29609,
  "Dan": 28412,
  "DanÄ±ÅŁ": 28954,
  "Dar": 16391,
  "Darbe": 42085,
  "Data": 50034,
  "Dav": 13206,
  "Dava": 47500,
  "David": 48475,
  "Davut": 36452,
  "DavutoÄŁlu": 44096,
  "Dayan": 47115,
  "DaÄŁ": 30240,
  "Db": 39979,
  "De": 17062,
  "Dede": 47046,
  "Def": 23851,
  "Dek": 30664,
  "Dekor": 39867,
  "Del": 21010,
  "Delete": 45498,
  "Dem": 8378,
  "Demek": 28831,
  "Demir": 15405,
  "Demokr": 18333,
  "Demokrasi": 40611,
  "Demokratik": 41281,
  "Den": 13159,
  "Deneme": 42535,
  "Denetim": 46907,
  "Deneyim": 47555,
  "Deniz": 7835,
  "Denizli": 16117,
  "Dep": 15355,
  "Deprem": 31991,
  "Der": 8779,
  "Derin": 35356,
  "Dern": 48861,
  "Dernek": 36167,
  "Ders": 21155,
  "Des": 34398,
  "Dest": 21299,
  "Destek": 24848,
  "Det": 48161,
  "Detay": 23671,
  "DetaylÄ±": 37352,
  "Dev": 4305,
  "Devam": 35285,
  "DevamÄ±": 18779,
  "DevamÄ±nÄ±": 11871,
  "Devlet": 8284,
  "Devletin": 33829,
  "Devrim": 39190,
  "DeÄŁ": 8298,
  "DeÄŁer": 29956,
  "DeÄŁerli": 20288,
  "DeÄŁiÅŁ": 42314,
  "DeÄŁiÅŁik": 25621,
  "DeÄŁiÅŁim": 49756,
  "Di": 25291,
  "Digiturk": 20707,
  "Dijital": 15678,
  "Dik": 13839,
  "Dikkat": 19206,
  "Dil": 13918,
  "Dilek": 43168,
  "Din": 14024,
  "Dini": 34619,
  "Dip": 38437,
  "Dir": 20119,
  "Dis": 24665,
  "Diy": 22824,
  "Diyanet": 24297,
  "DiyarbakÄ±r": 13778,
  "Diyet": 29873,
  "Diz": 21399,
  "Dizi": 35131,
  "DiÄŁer": 7163,
  "DiÅŁ": 18605,
  "Dk": 29847,
  "Do": 29103,
  "Dok": 26788,
  "Doktor": 18225,
  "Dol": 14085,
  "Dolar": 19629,
  "DolayÄ±sÄ±yla": 25808,
  "Dom": 33939,
  "Don": 15946,
  "Donald": 37713,
  "Dost": 26970,
  "Dosya": 32232,
  "Download": 27231,
  "DoÃ§": 26956,
  "DoÄŁ": 5635,
  "DoÄŁa": 30200,
  "DoÄŁal": 17025,
  "DoÄŁan": 31734,
  "DoÄŁru": 14825,
  "DoÄŁu": 16858,
  "DoÄŁum": 20616,
  "Dr": 7702,
  "Du": 41446,
  "Dub": 38120,
  "Dur": 14491,
  "Durum": 35275,
  "Duvar": 37479,
  "Duy": 17679,
  "Duygu": 44243,
  "DÃ¶n": 15414,
  "DÃ¶nem": 38600,
  "DÃ¶nÃ¼ÅŁ": 38247,
  "DÃ¶rt": 24151,
  "DÃ¶v": 24114,
  "DÃ¶viz": 32882,
  "DÃ¼n": 4504,
  "DÃ¼ny": 7638,
  "DÃ¼nya": 5302,
  "DÃ¼nyaca": 44923,
  "DÃ¼nyada": 18213,
  "DÃ¼nyadaki": 47099,
  "DÃ¼nyanÄ±n": 10137,
  "DÃ¼r": 48671,
  "DÃ¼z": 10210,
  "DÃ¼zce": 23791,
  "DÃ¼zen": 20629,
  "DÃ¼zenli": 40625,
  "DÃ¼ÄŁÃ¼n": 31419,
  "DÃ¼ÅŁ": 11643,
  "DÃ¼ÅŁÃ¼k": 26607,
  "DÃ¼ÅŁÃ¼n": 36722,
  "DÃľ": 18086,
  "DÃľL": 37263,
  "DÃľNYA": 25971,
  "DÃľR": 15286,
  "DÃľZ": 38423,
  "DÄ°": 5478,
  "DÄ°K": 29109,
  "DÄ°L": 44306,
  "DÄ°M": 50212,
  "DÄ°N": 22704,
  "DÄ°R": 8046,
  "DÄ°Y": 35848,
  "DÄ°ÄŀER": 43593,
  "DÄ±ÅŁ": 8214,
  "DÄ±ÅŁarÄ±": 43763,
  "DÄ±ÅŁiÅŁleri": 26441,
  "E": 37,
  "EA": 27053,
  "EB": 4507,
  "EBEK": 48198,
  "EBÄ°": 48089,
  "EBÄ°LÄ°R": 30821,
  "EC": 3872,
  "ECD": 28653,
  "ECE": 13889,
  "ECEK": 11687,
  "ECEÄŀ": 26771,
  "ECEÄŀÄ°Z": 48373,
  "ECÄ°": 30841,
  "ED": 2272,
  "EDAÅŀ": 37272,
  "EDE": 18375,
  "EDEN": 14187,
  "EDÄ°": 12941,
  "EDÄ°R": 17519,
  "EE": 24424,
  "EF": 5177,
  "EFA": 10764,
  "EFER": 44385,
  "EFON": 46261,
  "EFT": 36963,
  "EG": 12101,
  "EH": 7327,
  "EHÄ°R": 13492,
  "EK": 1707,
  "EKKÃľR": 33270,
  "EKONOMÄ°": 27990,
  "EKS": 45388,
  "EKT": 17263,
  "EKTR": 28001,
  "EKTÃĸR": 25861,
  "EKÄ°": 16454,
  "EL": 1447,
  "ELE": 33801,
  "ELER": 7321,
  "ELERÄ°": 17258,
  "ELSAN": 36569,
  "ELÄ°": 9021,
  "ELÄ°K": 14548,
  "ELÄ°M": 39876,
  "EM": 1832,
  "EMA": 47929,
  "EME": 21176,
  "EMEK": 32302,
  "EMLÄ°": 21905,
  "EMÄ°": 17408,
  "EMÄ°Z": 35797,
  "EN": 1234,
  "END": 13715,
  "ENER": 28526,
  "ENK": 30605,
  "ENLER": 30581,
  "ENT": 17997,
  "ENÄ°": 8586,
  "ENÄ°N": 34067,
  "EO": 5011,
  "EOG": 32821,
  "EP": 7227,
  "ER": 849,
  "ERASYON": 40682,
  "EREK": 43548,
  "ERK": 10269,
  "ERKES": 41767,
  "ERKEZ": 14667,
  "ERN": 41673,
  "ERS": 8652,
  "ERSON": 35716,
  "ERSÄ°N": 33733,
  "ERÄ°": 5493,
  "ERÄ°M": 49699,
  "ES": 1657,
  "ESCO": 20169,
  "ESK": 32079,
  "ESS": 45391,
  "EST": 10003,
  "ESTEK": 20671,
  "ESÄ°": 4242,
  "ESÄ°NDE": 30222,
  "ESÄ°NE": 38764,
  "ESÄ°NÄ°": 49479,
  "ESÄ°R": 49481,
  "ET": 1360,
  "ETE": 33915,
  "ETH": 34698,
  "ETLER": 16337,
  "ETLERÄ°": 46643,
  "ETT": 28140,
  "ETÃĸ": 5566,
  "ETÄ°": 17494,
  "ETÄ°K": 21988,
  "ETÄ°KETLER": 26611,
  "ETÄ°M": 36686,
  "ETÄ°N": 36580,
  "ETÄ°ÅŀÄ°M": 25934,
  "EUR": 21276,
  "EURO": 34379,
  "EV": 3681,
  "EVAP": 26446,
  "EVÄ°": 48741,
  "EX": 16477,
  "EY": 3834,
  "EYE": 16531,
  "EYT": 40865,
  "EYÄ°": 30897,
  "EYÄ°N": 45693,
  "EZ": 5630,
  "Eb": 18760,
  "Ebru": 49577,
  "Ebu": 40737,
  "Ec": 26628,
  "Ed": 21631,
  "Edebiyat": 28445,
  "Edin": 20087,
  "Edinilen": 21900,
  "Edirne": 23408,
  "Edit": 23633,
  "EditÃ¶r": 33378,
  "Ef": 16706,
  "Efendim": 42508,
  "Eg": 24082,
  "Ege": 21533,
  "Eh": 27310,
  "Ek": 3801,
  "Ekim": 16846,
  "Ekip": 40194,
  "Eklenme": 31754,
  "Ekmek": 47522,
  "Ekonom": 32155,
  "Ekonomi": 12550,
  "Ekonomik": 22965,
  "Ekran": 26391,
  "Ekrem": 47478,
  "El": 3888,
  "ElazÄ±ÄŁ": 19413,
  "Elbette": 18771,
  "Elekt": 11096,
  "Elektrik": 17387,
  "Elektrikli": 40576,
  "Elektronik": 23826,
  "Elif": 35992,
  "Em": 7829,
  "Email": 38091,
  "Emek": 16438,
  "Emekli": 31269,
  "Emin": 29901,
  "Emir": 33320,
  "Emlak": 30303,
  "Emniyet": 25960,
  "Emre": 28076,
  "En": 2525,
  "End": 19546,
  "EndÃ¼striyel": 46654,
  "Enerji": 19583,
  "Enf": 27357,
  "Enflasyon": 39899,
  "Eng": 36388,
  "Engel": 17682,
  "Engelli": 32765,
  "Engin": 43341,
  "English": 44939,
  "Ep": 33274,
  "Er": 3070,
  "Erdem": 45586,
  "ErdoÄŁan": 9994,
  "Eren": 45999,
  "Erg": 38872,
  "Ergenekon": 46424,
  "EriÅŁim": 45417,
  "Erkek": 14037,
  "Erkekler": 39541,
  "Erken": 27940,
  "Ermeni": 38749,
  "Ermenistan": 39102,
  "Ertesi": 45850,
  "Erz": 13878,
  "Erzincan": 32783,
  "Erzurum": 18976,
  "Es": 4767,
  "Esas": 42296,
  "Esen": 25450,
  "Eser": 34753,
  "Eski": 8627,
  "Eskiden": 31416,
  "EskiÅŁehir": 15963,
  "Esnaf": 34316,
  "Esra": 45544,
  "Est": 31122,
  "Et": 9212,
  "Eth": 36391,
  "Ethereum": 43551,
  "Etiket": 21874,
  "Etiketler": 5509,
  "Etkin": 24158,
  "Etkinlik": 32887,
  "Eur": 29996,
  "Euro": 24436,
  "Ev": 4454,
  "Evde": 16174,
  "Evden": 37230,
  "Eve": 44725,
  "Evet": 5581,
  "Evlilik": 30653,
  "Evren": 34369,
  "Evrim": 49788,
  "Ex": 14201,
  "Express": 44557,
  "Ey": 6985,
  "EylÃ¼l": 16455,
  "EyÃ¼p": 43524,
  "Ez": 30208,
  "EÃĩ": 7634,
  "EÄŀ": 31532,
  "EÄŀÄ°TÄ°M": 27748,
  "EÄŁ": 3800,
  "EÄŁer": 5461,
  "EÄŁitim": 8306,
  "EÅŀ": 7323,
  "EÅŀÄ°L": 43915,
  "EÅŁ": 11534,
  "F": 38,
  "FA": 8208,
  "FAT": 42645,
  "FC": 23886,
  "FE": 17059,
  "FED": 27047,
  "FEN": 42714,
  "FER": 32489,
  "FETÃĸ": 14653,
  "FF": 9396,
  "FI": 19892,
  "FL": 32682,
  "FO": 37318,
  "FOR": 25242,
  "FP": 48344,
  "FR": 43992,
  "FS": 27591,
  "FT": 9129,
  "FX": 24576,
  "Fa": 31101,
  "Facebook": 8670,
  "Fah": 43181,
  "Faiz": 38457,
  "Fak": 43199,
  "Fakat": 12385,
  "Fal": 48066,
  "Far": 22349,
  "Fark": 13809,
  "FarklÄ±": 17373,
  "Fas": 40823,
  "Fatih": 15145,
  "Fatma": 42856,
  "Fatura": 44289,
  "Favor": 47940,
  "Fay": 45015,
  "Faz": 26323,
  "Fazla": 38780,
  "Fe": 47414,
  "Fed": 37198,
  "Fel": 30430,
  "Felsef": 48121,
  "Fen": 36160,
  "FenerbahÃ§e": 10037,
  "Fer": 17729,
  "Festiv": 33221,
  "Festival": 50238,
  "Fet": 29486,
  "Feth": 29634,
  "Fethiye": 44565,
  "Fi": 10676,
  "Fik": 25105,
  "Fikir": 50082,
  "Fil": 14746,
  "Filistin": 26968,
  "Film": 12177,
  "Filmin": 33636,
  "Fin": 13855,
  "Final": 47475,
  "Finans": 29318,
  "Finansal": 35167,
  "Fir": 10929,
  "Firma": 29054,
  "FirmamÄ±z": 27598,
  "Fit": 34549,
  "Fiyat": 12322,
  "FiyatlarÄ±": 27513,
  "Fizik": 27908,
  "Fiziksel": 45270,
  "Fon": 43571,
  "For": 13810,
  "Force": 37644,
  "Ford": 46973,
  "Foreks": 33896,
  "Forex": 7914,
  "Form": 26935,
  "Forum": 18789,
  "Foto": 38452,
  "FotoÄŁraf": 14224,
  "Fran": 24917,
  "Frank": 49297,
  "Frans": 9822,
  "Fransa": 13607,
  "FransÄ±z": 20366,
  "Fre": 45310,
  "Free": 49299,
  "Fu": 46971,
  "Fuar": 42608,
  "Futbol": 14743,
  "FÄ°": 47537,
  "FÄ±ndÄ±k": 43982,
  "FÄ±r": 20579,
  "FÄ±rat": 39538,
  "FÄ±rs": 49298,
  "G": 39,
  "GA": 15822,
  "GAL": 37080,
  "GAN": 27261,
  "GAR": 33655,
  "GAT": 47170,
  "GAZ": 18204,
  "GB": 8611,
  "GC": 33574,
  "GD": 38353,
  "GE": 10418,
  "GEB": 19565,
  "GEL": 16288,
  "GEM": 41047,
  "GEN": 16617,
  "GENEL": 34736,
  "GENÃĩ": 49811,
  "GER": 32623,
  "GES": 46255,
  "GESÄ°": 37928,
  "GEÃĩ": 34304,
  "GF": 38618,
  "GI": 19793,
  "GIN": 34041,
  "GK": 8669,
  "GL": 49942,
  "GM": 18649,
  "GO": 19531,
  "GP": 39275,
  "GR": 33004,
  "GRAM": 22666,
  "GS": 8443,
  "GT": 41909,
  "GU": 36270,
  "GUL": 14736,
  "GULDAK": 50156,
  "GUN": 28842,
  "Gal": 19934,
  "Galatasaray": 9750,
  "Galaxy": 36679,
  "Gam": 33938,
  "Game": 45272,
  "Gar": 16648,
  "Garanti": 30744,
  "Gay": 26881,
  "Gayrimenkul": 40332,
  "Gaz": 20894,
  "Gazet": 11502,
  "Gazete": 23610,
  "Gazeteci": 34659,
  "Gazi": 11079,
  "Gaziantep": 14129,
  "Ge": 10598,
  "Gebelik": 34298,
  "Gebze": 39149,
  "Gec": 27611,
  "Gece": 23121,
  "Gel": 5335,
  "Gelecek": 21354,
  "GeleceÄŁin": 49040,
  "Gelelim": 33034,
  "Gelen": 35665,
  "Geleneksel": 27801,
  "Gelin": 25678,
  "Gelir": 37557,
  "GeliÅŁ": 21667,
  "GeliÅŁmiÅŁ": 39148,
  "GeliÅŁtir": 37755,
  "Gem": 35635,
  "Gen": 3775,
  "Genel": 5706,
  "Genelde": 39502,
  "Genelkurmay": 48759,
  "Genellikle": 24947,
  "General": 48000,
  "GeniÅŁ": 24857,
  "GenÃ§": 8428,
  "GenÃ§ler": 34733,
  "GenÃ§lik": 26091,
  "Ger": 15643,
  "Gerek": 16292,
  "Gerekli": 37925,
  "Geri": 15245,
  "GerÃ§": 9126,
  "GerÃ§ek": 13537,
  "GerÃ§ekten": 19079,
  "Gez": 20460,
  "Gezgin": 42016,
  "Gezi": 28115,
  "GeÃ§": 4989,
  "GeÃ§en": 10844,
  "GeÃ§ici": 44378,
  "GeÃ§miÅŁ": 16727,
  "GeÃ§miÅŁte": 41823,
  "GeÃ§tiÄŁimiz": 10756,
  "Gid": 29600,
  "Gir": 6852,
  "Giresun": 24552,
  "GiriÅŁ": 10199,
  "GiriÅŁim": 31911,
  "Git": 24200,
  "Giz": 14720,
  "Gizli": 37195,
  "Gizlilik": 18450,
  "Global": 32165,
  "Go": 31756,
  "Gol": 30569,
  "Google": 8728,
  "Gr": 39723,
  "Grafik": 35732,
  "Grand": 46621,
  "Grup": 23732,
  "Gu": 22663,
  "Guide": 42897,
  "Gur": 38502,
  "GÃ¶": 12749,
  "GÃ¶k": 13588,
  "GÃ¶khan": 40110,
  "GÃ¶l": 24284,
  "GÃ¶n": 37410,
  "GÃ¶nder": 7449,
  "GÃ¶nderen": 10732,
  "GÃ¶nderim": 45868,
  "GÃ¶nÃ¼l": 28678,
  "GÃ¶r": 5995,
  "GÃ¶rev": 28980,
  "GÃ¶rsel": 26833,
  "GÃ¶rÃ¼ldÃ¼ÄŁÃ¼": 48263,
  "GÃ¶rÃ¼n": 35796,
  "GÃ¶rÃ¼nt": 36565,
  "GÃ¶rÃ¼ntÃ¼": 41191,
  "GÃ¶rÃ¼ÅŁ": 26773,
  "GÃ¶ster": 31063,
  "GÃ¶z": 9246,
  "GÃ¶ztepe": 45700,
  "GÃ¶Ã§": 35724,
  "GÃ¶ÄŁ": 47736,
  "GÃ¼l": 12349,
  "GÃ¼mrÃ¼k": 41264,
  "GÃ¼mÃ¼ÅŁ": 23157,
  "GÃ¼mÃ¼ÅŁhane": 42165,
  "GÃ¼n": 2939,
  "GÃ¼ncel": 5926,
  "GÃ¼ncelleme": 8622,
  "GÃ¼nde": 35950,
  "GÃ¼ndem": 10431,
  "GÃ¼ney": 14472,
  "GÃ¼neÅŁ": 15325,
  "GÃ¼nlÃ¼k": 17581,
  "GÃ¼nÃ¼mÃ¼z": 33815,
  "GÃ¼nÃ¼mÃ¼zde": 13049,
  "GÃ¼nÃ¼n": 24261,
  "GÃ¼r": 19879,
  "GÃ¼ven": 9809,
  "GÃ¼venilir": 28123,
  "GÃ¼venli": 35345,
  "GÃ¼venlik": 18906,
  "GÃ¼zel": 11461,
  "GÃ¼zellik": 48900,
  "GÃ¼Ã§": 19509,
  "GÃ¼Ã§lÃ¼": 29519,
  "GÃĸR": 33185,
  "GÃľ": 23495,
  "GÃľL": 37551,
  "GÃľN": 8124,
  "GÃľNCEL": 19971,
  "GÃľNDEM": 20349,
  "GÃľR": 39035,
  "GÄ°": 10547,
  "GÄ°L": 37157,
  "GÄ°LÄ°": 21404,
  "GÄ°N": 29945,
  "GÄ°R": 31029,
  "GÄ°RÄ°Åŀ": 41335,
  "GÄ°SÄ°": 39392,
  "GÄ±da": 23100,
  "H": 40,
  "HA": 6387,
  "HABER": 15362,
  "HABERE": 43565,
  "HABERLER": 48111,
  "HAK": 26092,
  "HAL": 11600,
  "HAM": 41164,
  "HAN": 11929,
  "HAR": 45410,
  "HAS": 39361,
  "HAT": 38476,
  "HAY": 30365,
  "HB": 33161,
  "HD": 20635,
  "HDP": 15184,
  "HE": 23562,
  "HER": 24807,
  "HK": 11073,
  "HKP": 46331,
  "HO": 25433,
  "HP": 1929,
  "HR": 49661,
  "HS": 28840,
  "HT": 26969,
  "HTML": 42523,
  "HUR": 21647,
  "HY": 11754,
  "Ha": 24366,
  "Hab": 36921,
  "Haber": 3902,
  "Haberin": 47425,
  "Haberler": 6234,
  "Hac": 22367,
  "HacÄ±": 38004,
  "Had": 41059,
  "Hadi": 27199,
  "Hadis": 47903,
  "Haf": 10396,
  "Hafif": 43343,
  "Hafta": 24582,
  "HaftanÄ±n": 37037,
  "Hak": 10071,
  "Hakan": 26097,
  "Hakem": 46534,
  "Hakk": 10328,
  "Hakkari": 26529,
  "HakkÄ±mÄ±zda": 19233,
  "HakkÄ±nda": 38375,
  "Hal": 6142,
  "Hala": 41003,
  "Halil": 33424,
  "Halk": 12731,
  "HalkÄ±n": 37475,
  "Ham": 12758,
  "Hamil": 21133,
  "Hamilelik": 41189,
  "Hamilelikte": 47703,
  "Han": 10592,
  "Hangi": 15231,
  "Hani": 32207,
  "Har": 7923,
  "Hareket": 29852,
  "Harika": 29910,
  "Harry": 47812,
  "Has": 8217,
  "Hasan": 19530,
  "Hast": 17903,
  "Hasta": 29722,
  "HastalÄ±k": 37342,
  "Hastan": 30204,
  "Hastane": 47882,
  "Hat": 24943,
  "Hata": 40347,
  "Hatay": 19865,
  "Hatta": 23960,
  "HatÄ±r": 31477,
  "Hav": 12859,
  "Hava": 16527,
  "Havuz": 49408,
  "Hay": 4235,
  "Hayal": 30145,
  "Hayat": 11802,
  "HayatÄ±n": 47123,
  "Haydi": 36102,
  "Hayvan": 23740,
  "HayÄ±r": 9807,
  "HayÄ±rlÄ±": 44398,
  "Haz": 10943,
  "Hazine": 36496,
  "Haziran": 16838,
  "HazÄ±r": 18493,
  "HaÅŁ": 41699,
  "He": 24267,
  "Hedef": 19845,
  "Hel": 41458,
  "Hele": 45916,
  "Hem": 10254,
  "Hemen": 17801,
  "HenÃ¼z": 22553,
  "Hep": 9969,
  "Hepimiz": 35821,
  "Hepsi": 36163,
  "Her": 3024,
  "Herhangi": 19901,
  "Herk": 10695,
  "Herkes": 18013,
  "Herkese": 31728,
  "Herkesin": 28699,
  "Hes": 17588,
  "Hesab": 41316,
  "Hesap": 26713,
  "Hey": 22190,
  "Hid": 37043,
  "Hik": 24752,
  "Hil": 30355,
  "Hindistan": 23446,
  "Hip": 43313,
  "Hiper": 45948,
  "Hisse": 40887,
  "Hit": 48150,
  "Hizmet": 16032,
  "HiÃ§": 9976,
  "HiÃ§bir": 19103,
  "Hoc": 47330,
  "Hocam": 18877,
  "Hol": 17172,
  "Hollanda": 24786,
  "Home": 13061,
  "Hor": 49413,
  "Hotel": 22532,
  "Hotels": 45259,
  "HoÅŁ": 24116,
  "Huawei": 29572,
  "Hub": 49538,
  "Hukuk": 21539,
  "Hur": 25033,
  "Hurriyet": 44543,
  "Huzur": 38627,
  "Hy": 32595,
  "Hz": 10090,
  "HÃ¼kÃ¼m": 16521,
  "HÃ¼kÃ¼met": 25555,
  "HÃ¼kÃ¼metin": 47007,
  "HÃ¼rriyet": 20056,
  "HÃ¼s": 21729,
  "HÃ¼seyin": 26337,
  "HÄ±r": 25868,
  "HÄ±z": 14182,
  "HÄ±zlÄ±": 18458,
  "I": 41,
  "IA": 15263,
  "IB": 33094,
  "IC": 9255,
  "ICI": 24178,
  "ID": 6712,
  "IDA": 38445,
  "IDIR": 37119,
  "IDS": 39342,
  "IF": 21895,
  "IG": 27944,
  "II": 4745,
  "III": 15167,
  "IK": 3460,
  "IL": 3107,
  "ILACAK": 43202,
  "ILAN": 29493,
  "ILDI": 19268,
  "ILI": 8519,
  "ILIM": 37913,
  "ILIR": 34766,
  "ILIYOR": 39425,
  "ILIÃĩ": 34849,
  "ILIÅŀ": 47993,
  "ILMASI": 43109,
  "IM": 2732,
  "IMA": 40085,
  "IMF": 46848,
  "IMI": 16495,
  "IMIZ": 11119,
  "IN": 1356,
  "INA": 8212,
  "INAR": 37609,
  "INDA": 7072,
  "INDAKÄ°": 42159,
  "INDAN": 18915,
  "INE": 32567,
  "ING": 22222,
  "INI": 7211,
  "INIF": 41359,
  "ININ": 14744,
  "INIZ": 19267,
  "IP": 8613,
  "IQ": 42751,
  "IR": 2493,
  "IS": 4511,
  "ISA": 44555,
  "ISI": 12324,
  "ISO": 42048,
  "IST": 12739,
  "IT": 7566,
  "ITIM": 46227,
  "IV": 13013,
  "IX": 28134,
  "IY": 10705,
  "IYOR": 10183,
  "IYORUM": 46272,
  "IYORUZ": 36577,
  "IZ": 3780,
  "IZI": 35653,
  "Id": 37964,
  "If": 42253,
  "Ikili": 42451,
  "Il": 33960,
  "In": 5392,
  "Instagram": 14855,
  "Intel": 48777,
  "Inter": 45431,
  "Internet": 46712,
  "Ir": 39637,
  "Irak": 17093,
  "Is": 13053,
  "Isparta": 28027,
  "It": 46603,
  "IÄŀ": 46301,
  "IÄŁdÄ±r": 46912,
  "IÅŀ": 4197,
  "IÅŀI": 25534,
  "IÅŀÄ°D": 33952,
  "IÅŁ": 32909,
  "IÅŁÄ±k": 31018,
  "J": 42,
  "JAZ": 46676,
  "JK": 40372,
  "Jack": 45110,
  "Jandarma": 44656,
  "Jap": 16516,
  "Japon": 35743,
  "Japonya": 25692,
  "Je": 47815,
  "Jet": 31895,
  "Jo": 49698,
  "John": 28432,
  "JÄ°": 32392,
  "K": 43,
  "KA": 17239,
  "KAD": 18665,
  "KADIN": 46499,
  "KAL": 20677,
  "KALE": 39651,
  "KAM": 47887,
  "KAN": 7295,
  "KAP": 38934,
  "KAR": 7594,
  "KARA": 12843,
  "KAT": 18026,
  "KAY": 23282,
  "KB": 30106,
  "KCK": 44577,
  "KDV": 36749,
  "KE": 18630,
  "KEM": 40718,
  "KEN": 22328,
  "KI": 22707,
  "KIN": 37138,
  "KIR": 31674,
  "KK": 3799,
  "KKTC": 26806,
  "KM": 33001,
  "KO": 23744,
  "KOM": 49976,
  "KON": 20608,
  "KOR": 43367,
  "KP": 24121,
  "KPSS": 32180,
  "KR": 31380,
  "KS": 16655,
  "KUL": 45469,
  "KUR": 11295,
  "KV": 31688,
  "KVKK": 46543,
  "Ka": 24916,
  "Kab": 14220,
  "Kabul": 40547,
  "Kad": 16136,
  "Kadir": 32333,
  "KadÄ±kÃ¶y": 28616,
  "KadÄ±n": 7679,
  "KadÄ±na": 45539,
  "KadÄ±nlar": 23751,
  "KadÄ±nlarÄ±n": 33803,
  "Kaf": 22762,
  "Kah": 9387,
  "Kahraman": 17599,
  "KahramanmaraÅŁ": 22145,
  "Kahv": 29048,
  "KahvaltÄ±": 43780,
  "Kahve": 32603,
  "Kal": 6180,
  "KaldÄ±r": 43416,
  "Kalite": 40100,
  "Kaliteli": 30975,
  "Kalp": 23933,
  "Kam": 7744,
  "Kamer": 44415,
  "Kamera": 48428,
  "Kamp": 38879,
  "Kampany": 42564,
  "Kampanya": 36920,
  "Kamu": 14987,
  "Kan": 7812,
  "Kanada": 30536,
  "Kanal": 24046,
  "Kanser": 37528,
  "Kanun": 32025,
  "Kap": 7963,
  "KapalÄ±": 33101,
  "Kapat": 47423,
  "Kapital": 49509,
  "KapÄ": 43681,
  "KapÄ±": 43695,
  "Kar": 3071,
  "Kara": 17733,
  "Karab": 21093,
  "KarabÃ¼k": 30328,
  "Karadeniz": 25044,
  "Karak": 28142,
  "Karaman": 27934,
  "KaranlÄ±k": 49393,
  "Karar": 26177,
  "Karbon": 44293,
  "KardeÅŁ": 21977,
  "Kargo": 46069,
  "Kariyer": 30516,
  "Kars": 26735,
  "Kart": 17626,
  "Kartal": 28732,
  "KarÅŁ": 15281,
  "KarÅŁÄ±laÅŁ": 40393,
  "KarÅŁÄ±yaka": 46961,
  "Kas": 9317,
  "Kastamonu": 30364,
  "KasÄ±m": 14251,
  "Kat": 6241,
  "Katar": 42047,
  "Kategor": 11063,
  "Kategori": 21452,
  "Kategoriler": 16841,
  "KatÄ±lÄ±m": 27032,
  "Kav": 23159,
  "Kay": 4455,
  "Kaymakam": 33847,
  "Kaynak": 7089,
  "KaynakÃ§a": 11798,
  "Kayseri": 16212,
  "KayÄ±p": 40301,
  "KayÄ±t": 19791,
  "Kaz": 11479,
  "Kaza": 24549,
  "Kazakistan": 50033,
  "Kazan": 29065,
  "KaÃ§": 18385,
  "KaÃ§ak": 36517,
  "KaÄŁÄ±t": 34915,
  "KaÅŁ": 34193,
  "Kel": 27427,
  "Kelim": 44124,
  "Kemal": 20605,
  "Kemer": 47618,
  "Ken": 23517,
  "Kenan": 48030,
  "Kend": 7856,
  "Kendi": 13514,
  "Kendine": 45322,
  "Kendini": 34979,
  "Kendinizi": 48688,
  "Kendisi": 43286,
  "Kendisine": 48954,
  "Kent": 16217,
  "Kentsel": 43570,
  "Kep": 37623,
  "Ker": 23194,
  "Kes": 26815,
  "Kesin": 20521,
  "Kesinlikle": 27664,
  "Key": 28924,
  "KeÅŁ": 20473,
  "KeÅŁke": 32677,
  "Ki": 35234,
  "Kil": 16424,
  "Kilis": 39788,
  "Kilo": 36757,
  "Kim": 8542,
  "Kimi": 38588,
  "Kimse": 35200,
  "Kir": 17704,
  "Kit": 20971,
  "Kitab": 29517,
  "KitabÄ±": 32650,
  "KitabÄ±n": 41263,
  "Kitap": 12111,
  "KiÅŁ": 9347,
  "KiÅŁi": 36932,
  "KiÅŁinin": 45801,
  "KiÅŁisel": 12663,
  "Klasik": 27735,
  "Ko": 25117,
  "Koc": 33853,
  "Koca": 11714,
  "Kocaeli": 14010,
  "Kod": 44070,
  "Kol": 11082,
  "Kolay": 23924,
  "Kom": 13330,
  "Komisyon": 45367,
  "Komp": 38859,
  "Kon": 4546,
  "Konak": 37351,
  "Kons": 41780,
  "Kontrol": 36115,
  "Konu": 11338,
  "Konuk": 48139,
  "Konusu": 32087,
  "Konut": 24635,
  "Konuyla": 27344,
  "Konuyu": 45857,
  "KonuÅŁ": 15361,
  "KonuÅŁmalarÄ±n": 42595,
  "Konya": 12726,
  "Kor": 8973,
  "Kore": 46902,
  "Kork": 19613,
  "Korku": 49121,
  "Korona": 32501,
  "KoronavirÃ¼s": 16877,
  "Kos": 42422,
  "Kovid": 21486,
  "Koz": 33352,
  "KoÃ§": 26314,
  "KoÅŁ": 39295,
  "Kr": 8086,
  "Kral": 27753,
  "Kredi": 16514,
  "Krem": 46104,
  "Kripto": 17661,
  "Kronik": 49958,
  "Ku": 42009,
  "Kud": 35537,
  "KudÃ¼s": 45720,
  "Kul": 6028,
  "Kulak": 44184,
  "Kullan": 8120,
  "KullanÄ±cÄ±": 17021,
  "KullanÄ±cÄ±lar": 43930,
  "KullanÄ±m": 24096,
  "KulÃ¼p": 36592,
  "Kum": 23838,
  "Kup": 43831,
  "Kur": 5219,
  "Kural": 49620,
  "Kuran": 40878,
  "Kurban": 27424,
  "Kurt": 21748,
  "KurtuluÅŁ": 46861,
  "Kuru": 32192,
  "Kurul": 34361,
  "KuruluÅŁ": 35846,
  "Kurum": 13528,
  "Kurumsal": 21048,
  "Kus": 42405,
  "Kut": 22301,
  "Kutsal": 49537,
  "Kuzey": 16253,
  "KuÅŁ": 19373,
  "KuÅŁadasÄ±": 46944,
  "KÃ¶": 9829,
  "KÃ¶k": 40375,
  "KÃ¶pek": 34853,
  "KÃ¶r": 30976,
  "KÃ¶rfez": 46388,
  "KÃ¶tÃ¼": 26718,
  "KÃ¶y": 16602,
  "KÃ¶ÅŁe": 47370,
  "KÃ¼b": 45579,
  "KÃ¼ltÃ¼r": 13082,
  "KÃ¼nye": 29234,
  "KÃ¼r": 13559,
  "KÃ¼rdistan": 49363,
  "KÃ¼resel": 18653,
  "KÃ¼rt": 18070,
  "KÃ¼t": 19928,
  "KÃ¼tahya": 28933,
  "KÃ¼Ã§Ã¼k": 11197,
  "KÃĸ": 45618,
  "KÃĸY": 45277,
  "KÃľ": 35720,
  "KÃľLTÃľR": 42262,
  "KÃľR": 27754,
  "KÄ": 12734,
  "KÄ°": 10735,
  "KÄ°L": 46551,
  "KÄ°M": 42190,
  "KÄ°N": 18180,
  "KÄ±": 13291,
  "KÄ±brÄ±s": 16574,
  "KÄ±lÄ±Ã§": 18962,
  "KÄ±lÄ±Ã§daroÄŁlu": 22396,
  "KÄ±r": 7783,
  "KÄ±rklareli": 42612,
  "KÄ±rmÄ±zÄ±": 20160,
  "KÄ±rÄ±k": 29772,
  "KÄ±rÄ±kkale": 38269,
  "KÄ±rÅŁehir": 37453,
  "KÄ±s": 9817,
  "KÄ±sa": 15846,
  "KÄ±saca": 36061,
  "KÄ±sacasÄ±": 37825,
  "KÄ±y": 25226,
  "KÄ±z": 10005,
  "KÄ±zÄ±l": 21600,
  "KÄ±ÅŁ": 17557,
  "L": 44,
  "LA": 6209,
  "LADI": 18913,
  "LAH": 13914,
  "LAK": 21396,
  "LAM": 6872,
  "LAMA": 16221,
  "LAN": 4930,
  "LANDI": 25407,
  "LAR": 1786,
  "LARA": 18464,
  "LARAK": 20310,
  "LARARASI": 44010,
  "LARDA": 29507,
  "LARDAN": 45165,
  "LARI": 4635,
  "LARIMIZ": 26650,
  "LARIN": 10597,
  "LARINA": 31024,
  "LARINDA": 40245,
  "LARINI": 27373,
  "LARININ": 30626,
  "LARLA": 41547,
  "LAS": 28642,
  "LAT": 17845,
  "LAY": 20910,
  "LAYIN": 23866,
  "LAÅŀ": 11526,
  "LC": 16238,
  "LE": 3509,
  "LED": 35037,
  "LEDÄ°": 47085,
  "LEK": 32397,
  "LEM": 9094,
  "LEME": 20117,
  "LEN": 8512,
  "LENDÄ°": 39773,
  "LENDÄ°R": 22841,
  "LENEN": 44182,
  "LER": 2038,
  "LERDE": 39261,
  "LERE": 22157,
  "LERÄ°": 4812,
  "LERÄ°MÄ°Z": 29126,
  "LERÄ°N": 18674,
  "LERÄ°NE": 36601,
  "LERÄ°NÄ°": 34974,
  "LERÄ°NÄ°N": 41327,
  "LET": 11213,
  "LEY": 24035,
  "LEÅŀ": 13367,
  "LEÅŀTÄ°R": 28586,
  "LG": 25745,
  "LI": 2257,
  "LIK": 5799,
  "LIYOR": 37152,
  "LIÄŀ": 28298,
  "LIÄŀI": 18018,
  "LL": 29754,
  "LO": 20854,
  "LP": 36480,
  "LR": 49239,
  "LU": 5603,
  "LUK": 26802,
  "LULUK": 49445,
  "LUM": 33366,
  "LUS": 25047,
  "La": 16385,
  "Lar": 38181,
  "Lazer": 42464,
  "Le": 12963,
  "Leave": 40818,
  "Lef": 43114,
  "Len": 50098,
  "Lev": 30184,
  "Levent": 48137,
  "Li": 32185,
  "Lib": 30299,
  "Libya": 36986,
  "Lider": 38431,
  "Lig": 17508,
  "Lim": 22398,
  "Lin": 34212,
  "Link": 21154,
  "Linux": 48257,
  "Lis": 16009,
  "Lisans": 26522,
  "Lise": 42822,
  "List": 29132,
  "Liste": 40913,
  "Lit": 40750,
  "Lo": 39985,
  "Lock": 38156,
  "Log": 27487,
  "Lok": 47807,
  "Lond": 24306,
  "Londra": 27186,
  "LÃ¼bnan": 47227,
  "LÃ¼tfen": 19445,
  "LÃľ": 11013,
  "LÃľK": 25618,
  "LÃľL": 36579,
  "LÃľÄŀ": 24132,
  "LÃľÄŀÃľ": 29816,
  "LÄ°": 4231,
  "LÄ°K": 7172,
  "LÄ°LÄ°K": 34576,
  "LÄ°M": 31921,
  "LÄ°S": 29257,
  "LÄ°YOR": 50021,
  "LÄ°Äŀ": 27553,
  "LÄ°ÄŀÄ°": 16012,
  "M": 45,
  "MA": 4547,
  "MAD": 9893,
  "MADAN": 50110,
  "MADDE": 15450,
  "MADI": 29839,
  "MAGAZ": 47789,
  "MAGAZÄ°N": 48570,
  "MAK": 9494,
  "MAL": 23983,
  "MALAR": 28641,
  "MALARI": 35985,
  "MALI": 23603,
  "MAM": 28181,
  "MAN": 6780,
  "MAR": 24061,
  "MAS": 15850,
  "MASI": 12279,
  "MASINA": 43767,
  "MAT": 50042,
  "MAY": 19638,
  "MAYA": 29417,
  "MAYAN": 47159,
  "MAYIN": 44492,
  "MAZ": 13216,
  "MB": 12705,
  "ME": 6877,
  "MEB": 23754,
  "MED": 26707,
  "MEDÄ°": 50215,
  "MEK": 11074,
  "MEL": 40365,
  "MELER": 41273,
  "MELÄ°": 36330,
  "MEM": 39259,
  "MEN": 13393,
  "MER": 24330,
  "MES": 24003,
  "MESÄ°": 22362,
  "MET": 8962,
  "MEY": 24645,
  "MEYE": 42894,
  "MEZ": 27842,
  "MHP": 11822,
  "MI": 14470,
  "MIÅŀ": 19511,
  "MK": 13890,
  "ML": 26653,
  "MM": 14158,
  "MO": 23374,
  "MOB": 43807,
  "MP": 19634,
  "MR": 40239,
  "MS": 6865,
  "MSF": 46711,
  "MT": 24713,
  "MU": 17006,
  "MUT": 36884,
  "MUZ": 39047,
  "MUÅŀ": 29926,
  "Ma": 12169,
  "Maalesef": 32995,
  "Mac": 15411,
  "Macar": 35171,
  "Macaristan": 41849,
  "Mad": 18710,
  "Madde": 12874,
  "Madem": 42813,
  "Mag": 15623,
  "Magazin": 22923,
  "Mah": 9693,
  "Mahalle": 46003,
  "Mahkem": 41280,
  "Mahkeme": 28033,
  "Mahmut": 42256,
  "Mail": 34696,
  "Mak": 10499,
  "Makal": 34794,
  "Makale": 35819,
  "Makine": 44235,
  "Makyaj": 44133,
  "Mal": 9003,
  "Malatya": 16442,
  "Mali": 43738,
  "Maliye": 42583,
  "Maltepe": 43997,
  "Malzeme": 39083,
  "Man": 7162,
  "Manisa": 17687,
  "Mar": 6897,
  "Mardin": 23825,
  "Mari": 33595,
  "Mark": 9461,
  "Marka": 26759,
  "Markalar": 26567,
  "Market": 37745,
  "Marmara": 32139,
  "Marmaris": 40854,
  "Mars": 38013,
  "Mart": 13993,
  "Mas": 13162,
  "Masa": 41881,
  "Master": 30943,
  "Mat": 18351,
  "Matematik": 41811,
  "Mav": 48450,
  "Mavi": 23710,
  "Max": 34516,
  "May": 24344,
  "MayÄ±s": 16608,
  "Maz": 46184,
  "MaÃ§": 18371,
  "MaÃ§Ä±n": 42775,
  "MaÄŁ": 23700,
  "Mc": 40775,
  "Me": 30345,
  "Mec": 17603,
  "Meclis": 23619,
  "Med": 11573,
  "Medya": 24837,
  "Meh": 39529,
  "Mehmet": 11061,
  "Mek": 25649,
  "Meksika": 45707,
  "Mekt": 44268,
  "Mel": 20772,
  "Melek": 43719,
  "Mem": 15337,
  "Meme": 45317,
  "Memleket": 47482,
  "Memur": 32044,
  "Men": 15799,
  "Mer": 4793,
  "Merak": 37387,
  "Mercedes": 42315,
  "Merhaba": 8141,
  "Merhabalar": 20830,
  "Merkez": 11717,
  "Merkezi": 35915,
  "Mersin": 14301,
  "Mert": 46029,
  "Merve": 49845,
  "Mes": 7353,
  "Mesaj": 14208,
  "Mesela": 25624,
  "Meslek": 33879,
  "Mesleki": 45881,
  "Mesut": 48412,
  "Met": 12716,
  "Metal": 39292,
  "Mete": 24190,
  "Meteoroloji": 28942,
  "Metin": 26466,
  "Metro": 44547,
  "Mev": 11491,
  "Mevcut": 21839,
  "Mevsim": 48789,
  "Mey": 23658,
  "Mez": 21429,
  "MeÅŁ": 44689,
  "Mi": 40135,
  "Mic": 13521,
  "Microsoft": 16779,
  "Mide": 39020,
  "Mig": 48932,
  "Mik": 23198,
  "Mikro": 39254,
  "Mil": 8938,
  "Mill": 17949,
  "Millet": 14933,
  "Milletvekili": 39690,
  "Milli": 9526,
  "Milliyet": 23402,
  "MilliyetÃ§i": 41922,
  "MillÃ®": 44582,
  "Milyon": 35634,
  "Mim": 43065,
  "Mimar": 32849,
  "Min": 17291,
  "Mini": 34595,
  "Mir": 30945,
  "Mis": 14302,
  "Misafir": 19449,
  "Mit": 33288,
  "Mo": 23326,
  "Mobil": 11455,
  "Mod": 11010,
  "Moda": 27453,
  "Model": 25713,
  "Modern": 19873,
  "Mon": 16890,
  "Mor": 29147,
  "Moskova": 41399,
  "Motor": 24345,
  "Mr": 35292,
  "Mu": 6848,
  "Muh": 11233,
  "Muhammed": 27490,
  "Muhar": 41873,
  "Muharrem": 46059,
  "Muht": 18206,
  "MuhteÅŁem": 39024,
  "Mul": 43826,
  "Mur": 41592,
  "Murat": 17539,
  "Mus": 26462,
  "Mustafa": 12104,
  "Mut": 11558,
  "Mutfak": 28484,
  "Mutlu": 33443,
  "Muz": 48722,
  "MuÄŁla": 18263,
  "MuÅŁ": 37341,
  "My": 25979,
  "MÃ¼": 12938,
  "MÃ¼dÃ¼r": 45361,
  "MÃ¼f": 45769,
  "MÃ¼hendis": 47984,
  "MÃ¼kemmel": 27600,
  "MÃ¼n": 35573,
  "MÃ¼s": 47491,
  "MÃ¼slÃ¼m": 45647,
  "MÃ¼slÃ¼man": 23804,
  "MÃ¼t": 42058,
  "MÃ¼z": 14493,
  "MÃ¼zik": 24312,
  "MÃ¼ÅŁter": 12427,
  "MÃ¼ÅŁteri": 20863,
  "MÃ¼ÅŁteriler": 49887,
  "MÃľ": 24013,
  "MÄ°": 27983,
  "MÄ°L": 34033,
  "MÄ°N": 35237,
  "MÄ°R": 29387,
  "MÄ°T": 37906,
  "MÄ°Åŀ": 21367,
  "MÄ±sÄ±r": 20380,
  "N": 46,
  "NA": 8717,
  "NAK": 20723,
  "NAM": 44135,
  "NASA": 39576,
  "NATO": 32328,
  "NB": 21052,
  "NBA": 45869,
  "NC": 38012,
  "NDA": 47888,
  "NDE": 43130,
  "NE": 11698,
  "NEK": 31089,
  "NET": 13470,
  "NEÄŀÄ°": 43791,
  "NG": 23431,
  "NI": 30043,
  "NIN": 22897,
  "NO": 39395,
  "NOT": 28716,
  "NS": 21305,
  "NT": 38295,
  "NTech": 48601,
  "NU": 41312,
  "NUN": 35868,
  "Na": 39409,
  "Nak": 24338,
  "Namaz": 35197,
  "Name": 38317,
  "Nar": 41230,
  "Nas": 45183,
  "NasÄ±l": 12123,
  "Naz": 25806,
  "Ne": 4174,
  "Nec": 23604,
  "Neden": 10500,
  "Nedir": 44126,
  "Nef": 25191,
  "Nefes": 46742,
  "Ner": 14562,
  "Nerede": 26280,
  "Neredeyse": 49636,
  "Nes": 29927,
  "Net": 9370,
  "Netflix": 34553,
  "Nev": 20300,
  "NevÅŁehir": 30086,
  "New": 16641,
  "News": 42973,
  "Next": 25202,
  "Neyse": 28269,
  "Nih": 34605,
  "Nihayet": 50114,
  "Nik": 33974,
  "Nil": 32417,
  "Nis": 38018,
  "Nisan": 16674,
  "Nit": 25543,
  "Nitekim": 35263,
  "Niye": 44376,
  "NiÄŁde": 35844,
  "No": 15689,
  "Nok": 36944,
  "Nokia": 48609,
  "Nor": 33070,
  "Normal": 20034,
  "NorveÃ§": 48259,
  "Not": 12015,
  "Nov": 49618,
  "Nur": 19184,
  "NÃ¶": 45016,
  "NÃ¼fus": 33307,
  "NÄ°": 33333,
  "NÄ°N": 16943,
  "O": 47,
  "OB": 5149,
  "OBB": 18393,
  "OBÄ°": 13891,
  "OBÄ°L": 31221,
  "OC": 7772,
  "OCA": 25254,
  "OCAELÄ°": 46701,
  "OCUK": 18312,
  "OD": 9046,
  "OF": 19202,
  "OG": 11592,
  "OH": 27072,
  "OJ": 12389,
  "OK": 3668,
  "OKR": 39988,
  "OKT": 34970,
  "OKUL": 48865,
  "OKÄ°": 13479,
  "OL": 3066,
  "OLOJ": 13999,
  "OLOJÄ°": 19941,
  "OLU": 18723,
  "OM": 4324,
  "OME": 47416,
  "ON": 1935,
  "ONA": 48082,
  "ONE": 28987,
  "ONOM": 13953,
  "ONOMÄ°": 19328,
  "ONS": 44351,
  "ONU": 32989,
  "OO": 34898,
  "OP": 5137,
  "OR": 1688,
  "ORT": 27811,
  "ORU": 24134,
  "ORUM": 11289,
  "OS": 3198,
  "OSB": 34488,
  "OSGEB": 20799,
  "OSMAN": 44852,
  "OST": 24447,
  "OSU": 34155,
  "OSYAL": 23032,
  "OT": 5273,
  "OTA": 41500,
  "OTO": 34214,
  "OTOÄŀRAF": 40454,
  "OV": 7422,
  "OVA": 27512,
  "OVID": 12698,
  "OVÄ°D": 44789,
  "OW": 47599,
  "OX": 28734,
  "OY": 10757,
  "OZ": 12055,
  "Ob": 22836,
  "Ocak": 14806,
  "Od": 44696,
  "Oda": 28383,
  "Of": 19324,
  "Off": 32085,
  "Ofis": 38105,
  "Oh": 49669,
  "Ok": 6067,
  "Oku": 41167,
  "Okul": 10750,
  "Okum": 31159,
  "Okuma": 47129,
  "Okumaya": 45316,
  "Okunma": 36475,
  "Ol": 9294,
  "Olay": 11860,
  "OlayÄ±n": 45992,
  "OlaÄŁan": 42871,
  "OldukÃ§a": 37734,
  "Olum": 45412,
  "Olymp": 35499,
  "On": 4888,
  "Ona": 34492,
  "One": 32657,
  "Onlar": 21725,
  "OnlarÄ±": 48564,
  "OnlarÄ±n": 39571,
  "Online": 12907,
  "Onu": 24292,
  "Onun": 18435,
  "Onur": 31248,
  "Op": 10608,
  "Operasyon": 34430,
  "Opsiyon": 28365,
  "Option": 49328,
  "Or": 4004,
  "Orada": 36622,
  "Ordu": 18879,
  "Organ": 19735,
  "Organik": 41588,
  "Orhan": 29188,
  "Ori": 29416,
  "Orijinal": 33984,
  "Orman": 27639,
  "Ort": 36487,
  "Orta": 13940,
  "OrtadoÄŁu": 40702,
  "Ortak": 24411,
  "Ortalama": 32605,
  "Os": 35812,
  "Osman": 8390,
  "Osmaniye": 40788,
  "OsmanlÄ±": 12920,
  "Ot": 8827,
  "Otel": 16215,
  "Oto": 46042,
  "OtobÃ¼s": 41611,
  "Otom": 16143,
  "Otomatik": 29642,
  "Otomobil": 26007,
  "Otomotiv": 40187,
  "Otur": 29212,
  "Out": 43742,
  "Oy": 5591,
  "Oysa": 23151,
  "Oyun": 13166,
  "Oyuncu": 16789,
  "Oyuncular": 27430,
  "Oyunun": 42265,
  "OÄŀ": 4839,
  "OÄŀLU": 9779,
  "OÄŀRAF": 34064,
  "OÄŁ": 15775,
  "OÄŁlum": 36855,
  "OÄŁuz": 35789,
  "OÅŀ": 15638,
  "P": 48,
  "PA": 18664,
  "PAN": 33637,
  "PAR": 29582,
  "PC": 22596,
  "PD": 19947,
  "PDF": 44348,
  "PDY": 27183,
  "PE": 46618,
  "PER": 37541,
  "PG": 8520,
  "PKK": 16972,
  "PL": 38422,
  "PM": 30663,
  "PN": 13780,
  "PO": 19875,
  "POL": 31387,
  "POR": 18956,
  "PP": 45263,
  "PR": 13920,
  "PRO": 33107,
  "PS": 8224,
  "PSS": 10527,
  "PTT": 39526,
  "PU": 15710,
  "PY": 35547,
  "PYD": 39127,
  "Pa": 31491,
  "Paket": 30238,
  "Pakistan": 39946,
  "Pal": 24487,
  "Pamuk": 32869,
  "Pan": 11332,
  "Pandemi": 22621,
  "Panel": 44929,
  "Pap": 23270,
  "Par": 7090,
  "Para": 14885,
  "Paralel": 46323,
  "Paris": 25270,
  "Park": 24407,
  "Part": 23941,
  "Parti": 37667,
  "Pas": 19961,
  "Pat": 16526,
  "Patates": 47389,
  "Paul": 48092,
  "Pay": 19379,
  "PaylaÅŁ": 15808,
  "Pazar": 14555,
  "Pazarlama": 44958,
  "Pazartesi": 31547,
  "Pe": 40652,
  "Pek": 18392,
  "Peki": 8069,
  "Pen": 22041,
  "Pendik": 47477,
  "Per": 11143,
  "Performans": 43195,
  "Personel": 42390,
  "PerÅŁembe": 37374,
  "Pet": 31827,
  "Petrol": 34559,
  "Peygamber": 19459,
  "Ph": 24633,
  "Pi": 41784,
  "Pil": 32296,
  "Pin": 45140,
  "Pinterest": 32729,
  "Pir": 35064,
  "Piyas": 17600,
  "Piyasa": 37852,
  "PiÅŁ": 46517,
  "Plan": 27293,
  "Plastik": 41094,
  "Platform": 41910,
  "Play": 24612,
  "Plus": 29282,
  "Po": 35813,
  "Point": 35761,
  "Pol": 8203,
  "Polis": 17133,
  "Politika": 34866,
  "Polonya": 40782,
  "Pop": 16784,
  "PopÃ¼ler": 21350,
  "Por": 34151,
  "Port": 18680,
  "Portekiz": 48201,
  "Post": 11804,
  "Posta": 19818,
  "Posted": 14850,
  "Power": 41267,
  "Pr": 11381,
  "Prens": 43418,
  "Press": 12080,
  "Previous": 27624,
  "Pro": 3881,
  "Prof": 11634,
  "Profesyonel": 23551,
  "Program": 13505,
  "Programda": 50158,
  "ProgramÄ±n": 44843,
  "Proj": 17125,
  "Proje": 18001,
  "Projenin": 38673,
  "Prom": 48144,
  "Prot": 47074,
  "Psik": 18035,
  "Psikolojik": 39450,
  "Puan": 39444,
  "Putin": 38775,
  "PÄ±nar": 41098,
  "Q": 49,
  "QL": 18824,
  "QU": 37471,
  "Qu": 23339,
  "R": 50,
  "RA": 11031,
  "RAC": 39858,
  "RAF": 21086,
  "RAK": 21253,
  "RAM": 9766,
  "RAMAN": 41367,
  "RAN": 20081,
  "RAR": 44342,
  "RC": 22291,
  "RE": 11476,
  "REK": 37624,
  "REN": 13144,
  "RES": 26620,
  "RET": 8862,
  "RG": 48438,
  "RI": 16625,
  "RNA": 49829,
  "RO": 6875,
  "ROM": 39100,
  "RP": 19280,
  "RS": 23772,
  "RT": 21861,
  "RU": 19806,
  "RUM": 48105,
  "RUP": 26387,
  "RUPA": 30021,
  "Ra": 39076,
  "Rab": 49333,
  "Rabb": 29858,
  "Rad": 22982,
  "Radyo": 34981,
  "Rah": 39367,
  "Rahat": 39780,
  "Rak": 39544,
  "Ramazan": 18028,
  "Ran": 48851,
  "Rapor": 21233,
  "Raporda": 43362,
  "Ras": 48875,
  "Ray": 47803,
  "Re": 9764,
  "Read": 32389,
  "Real": 34673,
  "Rec": 22717,
  "Recep": 32590,
  "Red": 26144,
  "Ref": 31974,
  "Refer": 32773,
  "Rehber": 49059,
  "Rek": 14698,
  "Reklam": 18787,
  "RektÃ¶r": 40086,
  "Rel": 43758,
  "Renk": 21370,
  "Rep": 36332,
  "Res": 8257,
  "Resim": 20868,
  "Resmi": 22280,
  "Restor": 35874,
  "Resul": 49241,
  "Rezerv": 40308,
  "Rezervasyon": 46233,
  "Ris": 43874,
  "Risk": 33324,
  "Rize": 25976,
  "Ro": 42205,
  "Rob": 29515,
  "Robot": 38190,
  "Rom": 40907,
  "Roma": 30327,
  "Roman": 25636,
  "Ros": 48520,
  "Roy": 43654,
  "Ruh": 25810,
  "Rum": 30434,
  "Rus": 6638,
  "Rusya": 8748,
  "RÃ¶portaj": 48115,
  "RÃ¼y": 37122,
  "RÃ¼ya": 40614,
  "RÃ¼yada": 7833,
  "RÃ¼z": 39917,
  "RÃ¼zgar": 50173,
  "RÄ°": 27914,
  "RÄ°K": 45426,
  "RÄ°M": 44106,
  "S": 51,
  "SA": 7361,
  "SAB": 28680,
  "SAD": 35511,
  "SAK": 36453,
  "SAL": 19394,
  "SAM": 21869,
  "SAMSUN": 50127,
  "SAN": 8792,
  "SANAT": 46863,
  "SAR": 31837,
  "SAT": 25186,
  "SAV": 36902,
  "SAY": 45972,
  "SAÄŀ": 22021,
  "SAÄŀLIK": 25501,
  "SB": 9375,
  "SBC": 48642,
  "SBN": 31358,
  "SC": 36110,
  "SD": 24486,
  "SE": 12662,
  "SEC": 47317,
  "SEK": 24036,
  "SEL": 13586,
  "SEM": 42977,
  "SEN": 25794,
  "SEO": 30120,
  "SER": 24192,
  "SERÄ°": 37285,
  "SES": 40765,
  "SEV": 33749,
  "SGK": 28471,
  "SH": 31988,
  "SI": 12583,
  "SIN": 30294,
  "SIR": 44647,
  "SIZ": 19943,
  "SK": 5362,
  "SL": 25623,
  "SLAN": 46671,
  "SM": 11443,
  "SO": 6253,
  "SON": 14044,
  "SORU": 50135,
  "SOSYAL": 47216,
  "SOY": 33717,
  "SP": 7102,
  "SPK": 44769,
  "SPOR": 15072,
  "SQL": 38343,
  "SS": 5186,
  "ST": 3485,
  "STAFA": 39922,
  "STER": 25741,
  "SU": 18218,
  "SUN": 12993,
  "SUR": 49415,
  "SUZ": 38997,
  "SV": 45698,
  "SY": 8747,
  "SYK": 39928,
  "SYM": 14691,
  "Sa": 17256,
  "Saadet": 37512,
  "Saat": 18763,
  "Sab": 9805,
  "Sabah": 14401,
  "Sabit": 45369,
  "Sad": 35134,
  "Sadece": 9846,
  "Saf": 27687,
  "Sah": 13557,
  "Sahip": 49375,
  "Sahte": 46849,
  "Sak": 26503,
  "Sakarya": 16755,
  "Sal": 9689,
  "SaldÄ±r": 31721,
  "SalgÄ±n": 38707,
  "Salih": 38296,
  "SalÄ±": 37048,
  "Sam": 27694,
  "Saman": 47154,
  "Samsun": 7500,
  "Samsung": 14341,
  "San": 5531,
  "Sana": 24042,
  "Sanal": 24212,
  "Sanat": 17352,
  "SanatÃ§Ä±": 49468,
  "Sanayi": 28949,
  "Sanki": 43712,
  "SanÄ±k": 48972,
  "SanÄ±rÄ±m": 30439,
  "Sap": 46484,
  "Sar": 10675,
  "Saray": 20791,
  "SarÄ±": 18698,
  "SarÄ±yer": 46017,
  "Sat": 22370,
  "SatÄ±n": 28133,
  "SatÄ±ÅŁ": 22196,
  "Sav": 18538,
  "SavaÅŁ": 18239,
  "Savunma": 40287,
  "Say": 13186,
  "Sayf": 27263,
  "Sayfa": 23171,
  "SaygÄ±": 38562,
  "SayÄ±": 39347,
  "SayÄ±n": 12143,
  "SaÃ§": 13585,
  "SaÄŁ": 5281,
  "SaÄŁlÄ±k": 7171,
  "SaÄŁlÄ±klÄ±": 20822,
  "Sc": 16054,
  "Sch": 24624,
  "Script": 26437,
  "Se": 29755,
  "Search": 44587,
  "Seb": 33252,
  "Sec": 40146,
  "Sek": 37742,
  "SektÃ¶r": 21132,
  "Sel": 9066,
  "Selam": 22472,
  "Selim": 44402,
  "SelÃ§uk": 26249,
  "Sem": 21580,
  "Sen": 5425,
  "Seni": 21385,
  "Senin": 19771,
  "Sep": 24268,
  "Ser": 6779,
  "Serbest": 35381,
  "Serdar": 40756,
  "Seri": 38336,
  "Sermaye": 46020,
  "Sert": 49313,
  "Serv": 43080,
  "Servis": 31436,
  "Ses": 14644,
  "Sesli": 36547,
  "Set": 47833,
  "Sev": 6571,
  "Sevgi": 37578,
  "Sevgil": 32565,
  "Sevgili": 15051,
  "Sey": 13323,
  "Seyahat": 26163,
  "Sez": 33546,
  "Sezon": 24112,
  "SeÃ§": 9983,
  "SeÃ§im": 20041,
  "Sh": 12403,
  "Share": 27390,
  "Show": 43990,
  "Si": 38496,
  "Siber": 43705,
  "Sig": 16257,
  "Sigara": 37193,
  "Sigorta": 40659,
  "Siirt": 34211,
  "Sil": 15627,
  "Silah": 30969,
  "Sim": 24460,
  "Sin": 9813,
  "Sinan": 41920,
  "Sinem": 45985,
  "Sinema": 31540,
  "Sinop": 33476,
  "SipariÅŁ": 27023,
  "Sir": 47916,
  "Sistem": 18384,
  "Sit": 10119,
  "Site": 17225,
  "Sitede": 43665,
  "Sitemizde": 40759,
  "Siv": 47503,
  "Sivas": 17136,
  "Sivil": 30224,
  "Siyah": 20580,
  "Siyas": 12715,
  "Siyaset": 21682,
  "Siyasi": 30957,
  "Siz": 6050,
  "Size": 16375,
  "Sizi": 28727,
  "Sizin": 16752,
  "Sizler": 37038,
  "Sizlere": 41160,
  "Sk": 47856,
  "Sky": 42670,
  "Slot": 39287,
  "Smart": 27704,
  "Sn": 30406,
  "Sohbet": 25766,
  "Sok": 23657,
  "Sokak": 39372,
  "Sol": 19478,
  "Som": 42202,
  "Son": 2198,
  "SonDakika": 39966,
  "Sonr": 11198,
  "Sonra": 14420,
  "Sonraki": 13430,
  "SonrasÄ±nda": 45083,
  "Sonunda": 36034,
  "SonuÃ§": 12847,
  "SonuÃ§ta": 43287,
  "Sony": 30475,
  "Sor": 7993,
  "Soru": 15416,
  "Sorum": 40004,
  "Sorun": 30394,
  "Sosyal": 7382,
  "Sov": 41097,
  "Soy": 23718,
  "SoÄŁuk": 26432,
  "Sp": 11819,
  "Sponsor": 50231,
  "Spor": 6815,
  "St": 7311,
  "Standart": 29502,
  "Star": 22139,
  "Station": 20686,
  "Stok": 29824,
  "Str": 15262,
  "Stratej": 35475,
  "Su": 8475,
  "Sub": 34509,
  "Sultan": 19574,
  "Sun": 25772,
  "Sup": 44916,
  "Super": 29998,
  "Sur": 8331,
  "Suriye": 12301,
  "Survivor": 32672,
  "Sus": 40104,
  "Suudi": 28102,
  "SuÃ§": 30373,
  "Sy": 40772,
  "SÃ¶y": 32545,
  "SÃ¶z": 7940,
  "SÃ¶zcÃ¼": 38892,
  "SÃ¶zleÅŁ": 48296,
  "SÃ¼leyman": 25535,
  "SÃ¼n": 36288,
  "SÃ¼per": 12565,
  "SÃ¼r": 9687,
  "SÃ¼rdÃ¼rÃ¼lebilir": 40289,
  "SÃ¼rekli": 26465,
  "SÃ¼t": 25803,
  "SÃĸZ": 47585,
  "SÃľ": 50188,
  "SÄ": 16419,
  "SÄ°": 8176,
  "SÄ°AD": 15983,
  "SÄ°L": 41461,
  "SÄ°M": 48958,
  "SÄ°N": 25306,
  "SÄ°NÄ°Z": 40588,
  "SÄ°YASET": 36938,
  "SÄ°Z": 15574,
  "SÄ±cak": 21027,
  "SÄ±fÄ±r": 35820,
  "SÄ±k": 19544,
  "SÄ±n": 14848,
  "SÄ±nav": 25216,
  "SÄ±nÄ±f": 24374,
  "SÄ±nÄ±r": 27706,
  "SÄ±r": 14314,
  "SÄ±ra": 41212,
  "T": 52,
  "TA": 5695,
  "TAJ": 30498,
  "TAK": 19402,
  "TAL": 11742,
  "TALIK": 45198,
  "TALYA": 22853,
  "TAN": 9407,
  "TAR": 12692,
  "TAY": 46204,
  "TAÅŀ": 19400,
  "TB": 16029,
  "TBMM": 18582,
  "TC": 4278,
  "TCMB": 39325,
  "TD": 22044,
  "TE": 5930,
  "TEB": 49202,
  "TEK": 14944,
  "TEKN": 30309,
  "TEKNOLOJÄ°": 45435,
  "TEL": 38635,
  "TEM": 22309,
  "TEN": 20493,
  "TEP": 23930,
  "TEPE": 44181,
  "TER": 11511,
  "TERNET": 41940,
  "TERÄ°": 46936,
  "TEÅŀ": 35238,
  "TFF": 22519,
  "TH": 44713,
  "THY": 27484,
  "TI": 5696,
  "TIK": 33725,
  "TIM": 46992,
  "TIR": 10891,
  "TK": 8832,
  "TL": 5860,
  "TM": 10172,
  "TML": 19908,
  "TO": 14479,
  "TOBB": 40314,
  "TOKÄ°": 30402,
  "TOP": 30032,
  "TP": 13579,
  "TR": 5487,
  "TRABZON": 47655,
  "TROL": 37552,
  "TRT": 29741,
  "TRY": 24382,
  "TS": 10068,
  "TSK": 29617,
  "TT": 8410,
  "TU": 16033,
  "TUR": 13885,
  "TV": 7413,
  "Ta": 31956,
  "Tab": 9338,
  "Tabi": 20371,
  "Tabii": 17305,
  "Tablo": 22796,
  "Tag": 14699,
  "Tagged": 43225,
  "Tags": 21698,
  "Tah": 14397,
  "Tak": 8335,
  "Takip": 25928,
  "Taksim": 45028,
  "TakÄ±m": 29358,
  "Tal": 19137,
  "Talep": 49072,
  "Tam": 11631,
  "Tamam": 15547,
  "Tamamen": 38756,
  "Tan": 12516,
  "TanrÄ±": 25563,
  "TanÄ±m": 47997,
  "TanÄ±t": 36790,
  "TanÄ±tÄ±m": 41024,
  "Tap": 42634,
  "Tar": 4141,
  "Taraf": 20407,
  "Taraftar": 47858,
  "Tarif": 49050,
  "Tarih": 6301,
  "Tarihi": 22379,
  "TarihÃ§e": 49520,
  "Tarsus": 50224,
  "Tart": 36655,
  "TarÄ±m": 16716,
  "Tas": 32123,
  "Tasar": 20109,
  "TasarÄ±m": 29243,
  "Tat": 35225,
  "Tatil": 30708,
  "TatlÄ±": 37110,
  "Tav": 16573,
  "Tavsiye": 36715,
  "Tavuk": 43401,
  "Tay": 21416,
  "TaÅŁ": 14346,
  "TaÅŁÄ±n": 42789,
  "Te": 25908,
  "Teb": 31908,
  "Tec": 31767,
  "Tech": 24591,
  "TecrÃ¼b": 48157,
  "Ted": 39000,
  "Tedav": 28479,
  "Tedavi": 42114,
  "Tef": 48096,
  "Teh": 35775,
  "Tek": 4396,
  "TekirdaÄŁ": 25027,
  "Tekli": 38990,
  "Tekn": 9961,
  "Teknik": 16537,
  "Teknoloji": 14803,
  "Tekrar": 29039,
  "Tel": 8274,
  "Telefon": 12479,
  "Televizyon": 29511,
  "Tem": 10852,
  "Temel": 17906,
  "Temiz": 22828,
  "Temizlik": 42964,
  "Temmuz": 17991,
  "Ten": 38177,
  "Tep": 26015,
  "Ter": 7985,
  "Tercih": 38786,
  "TerÃ¶r": 17318,
  "Tes": 12951,
  "Tesis": 43483,
  "Teslim": 44444,
  "Test": 31840,
  "Tev": 31633,
  "Tex": 47190,
  "Tez": 34526,
  "TeÅŁ": 13081,
  "TeÅŁekkÃ¼r": 28889,
  "TeÅŁekkÃ¼rler": 22846,
  "Th": 22549,
  "The": 7439,
  "This": 30517,
  "Ticaret": 13994,
  "Ticari": 35130,
  "Tik": 40860,
  "Tim": 31736,
  "Time": 40526,
  "Tip": 26229,
  "Tir": 50141,
  "Tiyatro": 39159,
  "To": 42096,
  "Tok": 13813,
  "Tokat": 31791,
  "Tol": 40106,
  "Tom": 35609,
  "Top": 4976,
  "Toplam": 16431,
  "Toplant": 32979,
  "ToplantÄ±": 21962,
  "ToplantÄ±da": 33112,
  "Toplu": 34257,
  "Toplum": 15382,
  "Toplumsal": 34823,
  "Toprak": 31161,
  "Toptan": 35736,
  "Tor": 18739,
  "Toy": 43420,
  "Tr": 5653,
  "Trabz": 9322,
  "Trabzon": 15502,
  "Trabzonspor": 14954,
  "Trade": 48543,
  "Trader": 23254,
  "Trafik": 27038,
  "Trak": 39406,
  "Trans": 20544,
  "Transfer": 34543,
  "Trend": 29512,
  "Tru": 49361,
  "Trum": 21818,
  "Trump": 22133,
  "Tu": 46045,
  "Tube": 10132,
  "Tun": 20818,
  "Tunceli": 38575,
  "Tunes": 37388,
  "Tur": 8530,
  "Turgut": 41454,
  "Turizm": 24587,
  "Turk": 12746,
  "Turkcell": 25615,
  "Tut": 22380,
  "Tuz": 25264,
  "Tuzla": 46550,
  "TuÄŁ": 45177,
  "Tweet": 42491,
  "Twitter": 12003,
  "TÃ¶r": 29638,
  "TÃ¶rende": 48287,
  "TÃ¼ket": 23790,
  "TÃ¼ketici": 40912,
  "TÃ¼m": 4763,
  "TÃ¼p": 43462,
  "TÃ¼r": 25677,
  "TÃ¼rk": 1563,
  "TÃ¼rkiye": 2084,
  "TÃ¼rkler": 47745,
  "TÃ¼rkÃ§e": 14844,
  "TÃľ": 6575,
  "TÃľBÄ°TAK": 43138,
  "TÃľM": 35008,
  "TÃľR": 31227,
  "TÃľRK": 10023,
  "TÃľRKÄ°YE": 17905,
  "TÃľÄ°K": 31119,
  "TÄ°": 5767,
  "TÄ°F": 32132,
  "TÄ°K": 32653,
  "TÄ°M": 33884,
  "TÄ°R": 11314,
  "TÄ°Y": 41034,
  "TÄ±bbi": 42433,
  "TÄ±p": 26301,
  "TÄ±pkÄ±": 45932,
  "U": 53,
  "UA": 40753,
  "UB": 9672,
  "UBG": 29489,
  "UBU": 47275,
  "UC": 34579,
  "UCU": 33895,
  "UD": 27426,
  "UEFA": 29456,
  "UH": 35463,
  "UI": 34103,
  "UK": 5163,
  "UKUK": 29032,
  "UL": 2696,
  "ULU": 16880,
  "ULUK": 33590,
  "UM": 3161,
  "UMA": 30963,
  "UMHUR": 23161,
  "UMU": 24417,
  "UMUZ": 37940,
  "UN": 2560,
  "UNA": 21571,
  "UNDA": 22641,
  "UNU": 14981,
  "UNUN": 30339,
  "UNUZ": 44589,
  "UP": 10884,
  "UR": 1850,
  "URT": 31480,
  "URU": 21883,
  "URUM": 42217,
  "US": 3866,
  "USB": 47071,
  "USD": 10963,
  "UST": 31383,
  "USU": 16619,
  "UT": 4986,
  "UTBOL": 37460,
  "UTC": 28465,
  "UV": 23251,
  "UY": 9457,
  "UYARI": 30451,
  "UYOR": 25101,
  "UYU": 46582,
  "UZ": 5760,
  "Ucuz": 23719,
  "Ukrayna": 18303,
  "Ul": 7654,
  "UlaÅŁtÄ±rma": 38808,
  "Ulu": 29997,
  "Ulusal": 21481,
  "UluslararasÄ±": 11075,
  "Um": 41004,
  "UmarÄ±m": 30459,
  "Umut": 32703,
  "Un": 9773,
  "Unknown": 44949,
  "Unut": 22128,
  "Up": 32473,
  "Ur": 23491,
  "Urfa": 49628,
  "Usta": 44773,
  "Uy": 6827,
  "Uygul": 13439,
  "Uygulama": 26398,
  "Uygun": 27838,
  "Uyku": 39474,
  "UyuÅŁturucu": 47780,
  "Uz": 5571,
  "Uzak": 46757,
  "Uzaktan": 39890,
  "Uzay": 42091,
  "Uzm": 41717,
  "Uzman": 16808,
  "Uzmanlar": 36058,
  "Uzun": 9776,
  "UÃ§": 23908,
  "UÃ§ak": 20766,
  "UÃĩ": 19689,
  "UÄŁur": 29654,
  "UÅŀ": 7646,
  "UÅŀTUR": 32967,
  "UÅŁak": 32952,
  "V": 54,
  "VA": 18606,
  "VAL": 47362,
  "VAN": 24283,
  "VAR": 38318,
  "VAS": 46853,
  "VC": 19382,
  "VE": 28010,
  "VEK": 48924,
  "VEN": 15464,
  "VER": 24028,
  "VI": 19914,
  "VIDIA": 45122,
  "VP": 44898,
  "VPN": 38890,
  "VR": 49285,
  "Vah": 41498,
  "Vak": 18765,
  "VakÄ±f": 29370,
  "Val": 17286,
  "Vali": 16817,
  "Van": 13593,
  "Var": 16069,
  "Vat": 15769,
  "Vatan": 30352,
  "VatandaÅŁ": 17575,
  "Ve": 6605,
  "Vel": 41600,
  "Ven": 26606,
  "Ver": 9868,
  "Vergi": 28623,
  "Veri": 24365,
  "Video": 14515,
  "View": 28985,
  "Villa": 45282,
  "Vir": 42003,
  "VirÃ¼s": 42496,
  "Vit": 42695,
  "Vize": 49529,
  "Vizyon": 49117,
  "Vodafone": 29558,
  "Vol": 21541,
  "VÃ¼c": 18916,
  "VÃ¼cud": 34589,
  "VÃ¼cut": 31114,
  "VÄ°DEO": 41801,
  "W": 55,
  "WA": 50023,
  "WE": 34119,
  "WS": 30828,
  "Washington": 43917,
  "We": 29453,
  "Web": 9287,
  "Wh": 28723,
  "WhatsApp": 21966,
  "Whatsapp": 43485,
  "Win": 40813,
  "Windows": 14096,
  "Word": 22976,
  "WordPress": 33820,
  "Work": 47868,
  "World": 37484,
  "X": 56,
  "XL": 44259,
  "XX": 24762,
  "Xiaomi": 31493,
  "Y": 57,
  "YA": 4317,
  "YAK": 45342,
  "YAL": 16948,
  "YAN": 40407,
  "YAP": 27271,
  "YAR": 25961,
  "YAS": 30316,
  "YAZAR": 35920,
  "YAÅŀ": 25989,
  "YAÅŀAM": 37846,
  "YD": 13552,
  "YE": 13508,
  "YEN": 38522,
  "YENÄ°": 26196,
  "YER": 28861,
  "YI": 46934,
  "YIL": 26857,
  "YK": 11391,
  "YKS": 44027,
  "YLA": 37559,
  "YO": 15505,
  "YOL": 40831,
  "YON": 8035,
  "YOR": 5246,
  "YORUM": 21841,
  "YP": 24163,
  "YPG": 30853,
  "YS": 18406,
  "YSK": 45145,
  "YT": 27702,
  "YUM": 46885,
  "Ya": 11503,
  "YabancÄ±": 18316,
  "Yah": 23488,
  "Yak": 7942,
  "YaklaÅŁÄ±k": 15261,
  "YakÄ±n": 20456,
  "Yal": 22050,
  "Yalan": 39238,
  "YalnÄ±z": 18133,
  "YalnÄ±zca": 36316,
  "Yalova": 34566,
  "Yan": 11033,
  "YangÄ±n": 32115,
  "Yani": 10895,
  "YanlÄ±ÅŁ": 28738,
  "YanÄ±t": 23683,
  "YanÄ±tla": 15768,
  "Yap": 5323,
  "Yapay": 36650,
  "YapÄ": 26731,
  "YapÄ±": 26742,
  "YapÄ±lan": 12208,
  "YapÄ±m": 36318,
  "Yar": 6324,
  "YardÄ±m": 19758,
  "YargÄ±": 22921,
  "YargÄ±tay": 31154,
  "YarÄ±m": 35876,
  "YarÄ±n": 29821,
  "YarÄ±ÅŁ": 28541,
  "Yas": 19483,
  "Yasal": 36290,
  "Yat": 23519,
  "Yatak": 46865,
  "YatÄ±rÄ±m": 15032,
  "Yav": 49364,
  "Yavuz": 37843,
  "Yay": 27696,
  "YayÄ±m": 45478,
  "YayÄ±n": 10181,
  "YayÄ±nlanan": 46925,
  "YayÄ±nlanma": 29474,
  "Yaz": 6365,
  "Yazan": 28317,
  "Yazar": 7513,
  "Yazarlar": 24780,
  "YazarÄ±n": 38685,
  "YazÄ±": 16280,
  "YazÄ±lÄ±m": 30074,
  "YazÄ±nÄ±n": 49556,
  "YaÄŁ": 16709,
  "YaÄŁmur": 36476,
  "YaÅŁ": 6132,
  "YaÅŁam": 15318,
  "YaÅŁanan": 33945,
  "YaÅŁar": 42555,
  "YaÅŁayan": 35379,
  "YaÅŁlÄ±": 36204,
  "Yedi": 44553,
  "Yem": 40931,
  "Yemek": 17037,
  "Yemen": 48621,
  "Yen": 14007,
  "Yeni": 3529,
  "Yeniden": 29494,
  "Yenilik": 49113,
  "Yer": 8338,
  "Yerel": 13274,
  "Yerli": 25736,
  "Yet": 13669,
  "Yeter": 41477,
  "YetiÅŁkin": 43845,
  "YeÅŁil": 13524,
  "Yine": 10256,
  "Yok": 14633,
  "Yoksa": 34432,
  "Yol": 12889,
  "Yorum": 5740,
  "Yorumlar": 22903,
  "Yorumunuz": 36923,
  "You": 17193,
  "YouTube": 32000,
  "Your": 34351,
  "YourGuide": 45151,
  "Youtube": 30317,
  "Yozgat": 32855,
  "YoÄŁun": 29588,
  "YukarÄ±": 10063,
  "YukarÄ±da": 16612,
  "YukarÄ±daki": 19727,
  "Yum": 21999,
  "Yumurta": 46288,
  "Yunan": 14276,
  "Yunanistan": 19714,
  "Yunus": 32112,
  "Yur": 39059,
  "Yurt": 12527,
  "YurtdÄ±ÅŁÄ±": 43292,
  "Yusuf": 26448,
  "YÃ¶n": 10136,
  "YÃ¶net": 24179,
  "YÃ¶netim": 22529,
  "YÃ¶netmen": 30141,
  "YÃ¶r": 48806,
  "YÃ¼ce": 43508,
  "YÃ¼k": 7864,
  "YÃ¼ksek": 9627,
  "YÃ¼ksel": 48382,
  "YÃ¼r": 19960,
  "YÃ¼z": 10221,
  "YÃ¼zde": 36156,
  "YÃ¼zyÄ±l": 49308,
  "YÃĸK": 34881,
  "YÃľZ": 46421,
  "YÄ°": 9343,
  "YÄ±k": 44436,
  "YÄ±l": 6339,
  "YÄ±ldÄ±rÄ±m": 28354,
  "YÄ±ldÄ±z": 22024,
  "YÄ±llar": 36187,
  "YÄ±llardÄ±r": 32629,
  "YÄ±llÄ±k": 44686,
  "YÄ±lmaz": 30575,
  "YÄ±lÄ±n": 24960,
  "Z": 58,
  "ZA": 42448,
  "ZEM": 45771,
  "ZER": 18299,
  "ZON": 24554,
  "ZURUM": 46529,
  "Zafer": 42647,
  "Zaman": 13902,
  "Zar": 33032,
  "Zaten": 20472,
  "ZayÄ±f": 44805,
  "Zen": 48209,
  "Zengin": 41290,
  "Zeynep": 39128,
  "Zeytin": 22661,
  "Zih": 42517,
  "Zir": 19274,
  "Zira": 38035,
  "Ziraat": 24976,
  "Ziyaret": 18472,
  "Zonguldak": 22916,
  "Zor": 18486,
  "[": 59,
  "[/": 32779,
  "\\": 60,
  "\\\"\"": 42877,
  "\\'": 14897,
  "]": 61,
  "],": 24274,
  "].": 14041,
  "][": 22992,
  "]]": 40706,
  "^": 62,
  "_": 63,
  "__": 5288,
  "____": 9451,
  "________": 17299,
  "________________": 33763,
  "`": 64,
  "a": 65,
  "aa": 7483,
  "aaa": 35043,
  "aaaa": 30436,
  "aat": 821,
  "ab": 332,
  "aba": 1467,
  "abad": 45638,
  "abah": 18513,
  "abahis": 24696,
  "abahÃ§e": 31663,
  "abak": 7854,
  "abaka": 33773,
  "abakat": 46522,
  "abalÄ±k": 23835,
  "aban": 1880,
  "abancÄ±": 2494,
  "abar": 42589,
  "abase": 47431,
  "abasÄ±": 35674,
  "abat": 20553,
  "abay": 38372,
  "abaÅŁ": 38140,
  "abb": 17713,
  "abbet": 30088,
  "abe": 20704,
  "abel": 23565,
  "aber": 708,
  "abet": 2571,
  "abeth": 25525,
  "abetik": 46292,
  "abetin": 46871,
  "abey": 10674,
  "abi": 7372,
  "abil": 830,
  "abildi": 19639,
  "abildik": 41632,
  "abildikleri": 41850,
  "abildim": 36384,
  "abildiÄŁ": 8109,
  "abildiÄŁi": 11731,
  "abildiÄŁim": 47147,
  "abildiÄŁimiz": 40736,
  "abildiÄŁince": 14245,
  "abildiÄŁine": 37202,
  "abildiÄŁini": 22759,
  "abildiÄŁiniz": 37716,
  "abilecek": 1784,
  "abilecekler": 31577,
  "abilecekleri": 13683,
  "abileceklerini": 31097,
  "abileceksiniz": 17130,
  "abilecektir": 17771,
  "abileceÄŁ": 7844,
  "abileceÄŁi": 3753,
  "abileceÄŁim": 30308,
  "abileceÄŁimi": 44496,
  "abileceÄŁimiz": 15260,
  "abileceÄŁimizi": 32376,
  "abileceÄŁin": 38361,
  "abileceÄŁinden": 29443,
  "abileceÄŁine": 17100,
  "abileceÄŁini": 4776,
  "abileceÄŁinin": 38152,
  "abileceÄŁiniz": 3994,
  "abileceÄŁinizi": 18268,
  "abilen": 4503,
  "abilim": 18097,
  "abilir": 571,
  "abilirdi": 28718,
  "abilirim": 11835,
  "abiliriz": 5770,
  "abilirler": 5773,
  "abilirsin": 10505,
  "abilirsiniz": 1051,
  "abilitasyon": 16468,
  "ability": 40846,
  "abiliyor": 2622,
  "abiliyordu": 36234,
  "abiliyorlar": 18247,
  "abiliyorsunuz": 11323,
  "abiliyorum": 27805,
  "abiliyoruz": 16363,
  "abilm": 1495,
  "abilme": 8328,
  "abilmek": 3043,
  "abilmekte": 25177,
  "abilmektedir": 4084,
  "abilmektedirler": 30334,
  "abilmeleri": 14857,
  "abilmemiz": 38224,
  "abilmenin": 38748,
  "abilmeniz": 11243,
  "abilmesi": 4670,
  "abilmesine": 39394,
  "abilmesini": 32069,
  "abilmeyi": 44334,
  "abilmiÅŁ": 19419,
  "abilmiÅŁtir": 43250,
  "abin": 36594,
  "abinde": 15958,
  "abir": 20695,
  "abirent": 44698,
  "abit": 32520,
  "abiye": 37575,
  "abl": 42020,
  "able": 12678,
  "ablo": 38049,
  "ablus": 25327,
  "abo": 21864,
  "abol": 12492,
  "abolik": 21936,
  "aboliz": 15284,
  "abor": 6728,
  "aborat": 7510,
  "abri": 27456,
  "abrik": 4637,
  "abrika": 9312,
  "abuk": 23006,
  "abz": 3278,
  "abÄ": 1663,
  "abÄ±": 1664,
  "abÄ±n": 21389,
  "abÄ±na": 37618,
  "abÄ±nda": 32150,
  "abÄ±ndan": 41643,
  "abÄ±nÄ±": 27671,
  "abÄ±nÄ±n": 38470,
  "abÄ±t": 27042,
  "abÄ±ta": 16365,
  "abÄ±z": 31891,
  "ac": 354,
  "aca": 2637,
  "acaat": 10965,
  "acag": 18927,
  "acak": 500,
  "acaklar": 9509,
  "acaklardÄ±r": 37469,
  "acaklarÄ±": 14439,
  "acaklarÄ±nÄ±": 12005,
  "acaksÄ±n": 17538,
  "acaksÄ±nÄ±z": 6045,
  "acaktÄ±": 17320,
  "acaktÄ±r": 1647,
  "acam": 40962,
  "acan": 11930,
  "acao": 27888,
  "acar": 46357,
  "acasÄ±": 10741,
  "acaÄŁ": 690,
  "acaÄŁa": 48007,
  "acaÄŁÄ": 1556,
  "acaÄŁÄ±": 1557,
  "acaÄŁÄ±m": 3502,
  "acaÄŁÄ±ma": 41617,
  "acaÄŁÄ±mÄ±": 16178,
  "acaÄŁÄ±mÄ±z": 6618,
  "acaÄŁÄ±mÄ±za": 26247,
  "acaÄŁÄ±mÄ±zÄ±": 14445,
  "acaÄŁÄ±n": 20572,
  "acaÄŁÄ±na": 3741,
  "acaÄŁÄ±ndan": 10689,
  "acaÄŁÄ±nÄ±": 1787,
  "acaÄŁÄ±nÄ±n": 13596,
  "acaÄŁÄ±nÄ±z": 3466,
  "acaÄŁÄ±nÄ±za": 20870,
  "acaÄŁÄ±nÄ±zÄ±": 11269,
  "acaÄŁÄ±z": 2126,
  "acci": 24756,
  "ace": 6222,
  "acebook": 3375,
  "ach": 5790,
  "ache": 29903,
  "achel": 42222,
  "acher": 39255,
  "aci": 10539,
  "acir": 49096,
  "acivert": 13277,
  "aciÄŁer": 11184,
  "ack": 2707,
  "acle": 37712,
  "aco": 28785,
  "act": 14387,
  "action": 39098,
  "active": 46372,
  "acy": 24924,
  "acÄ": 1085,
  "acÄ±": 1086,
  "acÄ±k": 6077,
  "acÄ±lar": 12853,
  "acÄ±larÄ±": 48071,
  "acÄ±larÄ±n": 24329,
  "acÄ±lÄ±k": 4071,
  "acÄ±lÄ±ÄŁ": 16566,
  "acÄ±lÄ±ÄŁÄ±": 11003,
  "acÄ±lÄ±ÄŁÄ±n": 50216,
  "acÄ±m": 35162,
  "acÄ±n": 9761,
  "acÄ±nÄ±n": 13194,
  "acÄ±nÄ±z": 35801,
  "acÄ±oÄŁlu": 45562,
  "acÄ±sÄ±": 40730,
  "acÄ±ya": 39360,
  "ad": 317,
  "ada": 574,
  "adak": 26831,
  "adaki": 2587,
  "adalÄ±": 40009,
  "adam": 12303,
  "adamlarÄ±": 34864,
  "adamÄ±": 23155,
  "adan": 847,
  "adana": 31249,
  "adar": 12197,
  "adas": 13791,
  "adasÄ±": 13347,
  "adasÄ±nÄ±z": 34800,
  "aday": 21941,
  "adaydÄ±": 41525,
  "adayÄ±z": 42398,
  "adaÄŁ": 14972,
  "adaÅŁ": 1226,
  "adde": 2899,
  "addes": 30409,
  "addesi": 6416,
  "addin": 25885,
  "ade": 652,
  "adece": 1083,
  "adel": 35456,
  "adeler": 30356,
  "adeli": 36468,
  "adem": 2757,
  "ademi": 12402,
  "aden": 14345,
  "adeniz": 5681,
  "ader": 6737,
  "ades": 46036,
  "adet": 5341,
  "adi": 4172,
  "adig": 18293,
  "adik": 41843,
  "adil": 20612,
  "adili": 43443,
  "adim": 31146,
  "adin": 20967,
  "ading": 10412,
  "adio": 38250,
  "adir": 5921,
  "adis": 11780,
  "adiye": 33179,
  "adiÅŁ": 9895,
  "adiÅŁah": 10561,
  "admin": 15047,
  "ado": 14923,
  "adok": 16160,
  "adokya": 18702,
  "adol": 36044,
  "adolu": 2739,
  "ador": 20708,
  "adow": 49091,
  "ads": 30527,
  "ady": 16211,
  "adÃ®": 46591,
  "adÃ¼f": 13089,
  "adÄ": 1237,
  "adÄ±": 1238,
  "adÄ±k": 1882,
  "adÄ±klarÄ±": 5485,
  "adÄ±klarÄ±nÄ±": 7432,
  "adÄ±ktan": 19255,
  "adÄ±kÃ§a": 44431,
  "adÄ±kÃ¶y": 9717,
  "adÄ±lar": 13483,
  "adÄ±m": 3114,
  "adÄ±n": 5434,
  "adÄ±na": 25348,
  "adÄ±nÄ±": 23375,
  "adÄ±nÄ±z": 20302,
  "adÄ±r": 3494,
  "adÄ±rÄ±": 43644,
  "adÄ±ysanÄ±z": 40498,
  "adÄ±ÄŁ": 1854,
  "adÄ±ÄŁÄ±": 1446,
  "adÄ±ÄŁÄ±m": 9086,
  "adÄ±ÄŁÄ±mÄ±z": 6746,
  "adÄ±ÄŁÄ±n": 31955,
  "adÄ±ÄŁÄ±na": 45779,
  "adÄ±ÄŁÄ±nda": 43931,
  "adÄ±ÄŁÄ±ndan": 44907,
  "adÄ±ÄŁÄ±nÄ±": 2008,
  "adÄ±ÄŁÄ±nÄ±z": 7106,
  "adÄ±ÅŁÄ±": 14066,
  "ae": 25421,
  "af": 413,
  "afa": 2090,
  "afak": 11399,
  "afaka": 38143,
  "afat": 34416,
  "afe": 10265,
  "afer": 5639,
  "afet": 12562,
  "afeti": 35814,
  "aff": 22234,
  "affer": 19225,
  "afi": 25169,
  "afil": 49730,
  "afir": 3941,
  "afl": 47652,
  "afor": 45515,
  "afra": 21994,
  "afram": 33759,
  "aft": 32013,
  "aftiz": 50125,
  "afÃ¶r": 18961,
  "ag": 1548,
  "aga": 19532,
  "aganda": 20347,
  "agat": 29076,
  "age": 12773,
  "agen": 18856,
  "ager": 34729,
  "ages": 25792,
  "agne": 47484,
  "ago": 16564,
  "agon": 24205,
  "ague": 15418,
  "ah": 331,
  "aha": 505,
  "ahah": 47045,
  "ahalle": 25981,
  "aham": 42184,
  "ahan": 13149,
  "ahat": 1225,
  "ahattin": 10837,
  "ahede": 40016,
  "ahh": 6182,
  "ahhÃ¼t": 40866,
  "ahi": 11315,
  "ahil": 9979,
  "ahim": 3845,
  "ahir": 25616,
  "ahis": 5414,
  "ahisar": 12038,
  "ahit": 12997,
  "ahmet": 4783,
  "aht": 32082,
  "ahtar": 4803,
  "ahtarÄ±": 13005,
  "ahya": 10237,
  "ahÃ¼r": 21160,
  "ai": 4072,
  "ail": 6162,
  "aile": 42000,
  "aily": 32685,
  "ain": 4292,
  "aint": 15526,
  "air": 2867,
  "aire": 23048,
  "ait": 35035,
  "aiz": 9042,
  "aj": 1375,
  "aja": 40643,
  "ajÄ": 25705,
  "ajÄ±": 25820,
  "ak": 276,
  "aka": 4270,
  "akal": 7489,
  "akan": 35278,
  "akar": 4055,
  "akarya": 6291,
  "akat": 1439,
  "ake": 13193,
  "akende": 9535,
  "aker": 23119,
  "aket": 2742,
  "aketi": 7657,
  "aki": 551,
  "akil": 21092,
  "akin": 7231,
  "akip": 20092,
  "akir": 25962,
  "akis": 28026,
  "akistan": 8655,
  "akk": 1748,
  "akkab": 16400,
  "akkabÄ±": 5777,
  "akkak": 12909,
  "akkale": 5787,
  "akkat": 36684,
  "akki": 27134,
  "akla": 47485,
  "aklar": 8381,
  "aklarÄ±": 8750,
  "aklÄ±": 6729,
  "aklÄ±k": 11926,
  "akos": 46366,
  "aks": 16874,
  "aksi": 38281,
  "aksiyon": 45054,
  "akt": 12587,
  "akta": 15302,
  "aktadÄ±r": 21887,
  "aktan": 10671,
  "aktif": 13058,
  "aktivite": 48591,
  "akuz": 40179,
  "akÃ¢r": 15467,
  "akÃ¶y": 41567,
  "akÄ±n": 39269,
  "al": 274,
  "ala": 3624,
  "alak": 27445,
  "alam": 3892,
  "alama": 2636,
  "alamak": 33440,
  "alamaya": 29448,
  "alamut": 46470,
  "alan": 1011,
  "alanan": 15383,
  "alandÄ±": 19607,
  "alandÄ±r": 6150,
  "alandÄ±rma": 34713,
  "alanma": 42520,
  "alanmasÄ±": 21769,
  "alanmÄ±ÅŁ": 24023,
  "alanÄ±": 12253,
  "alar": 407,
  "alara": 2499,
  "alarak": 11014,
  "alarca": 10045,
  "alarda": 1994,
  "alardaki": 15027,
  "alardan": 4185,
  "alardÄ±r": 44076,
  "alari": 43212,
  "alarla": 5202,
  "alarÄ": 923,
  "alarÄ±": 924,
  "alarÄ±m": 39764,
  "alarÄ±mÄ±z": 10242,
  "alarÄ±mÄ±zÄ±": 38108,
  "alarÄ±mÄ±zÄ±n": 29590,
  "alarÄ±n": 1741,
  "alarÄ±na": 3008,
  "alarÄ±nda": 2371,
  "alarÄ±ndaki": 12404,
  "alarÄ±ndan": 4567,
  "alarÄ±nÄ±": 2503,
  "alarÄ±nÄ±n": 2810,
  "alarÄ±nÄ±z": 45484,
  "alarÄ±nÄ±zÄ±": 15441,
  "alarÄ±yla": 8574,
  "alat": 2045,
  "alata": 21265,
  "alatasar": 3643,
  "alatasaray": 3665,
  "alatya": 5768,
  "alaxy": 7774,
  "alay": 41239,
  "alaÅŁ": 13198,
  "alaÅŁma": 36940,
  "alb": 37872,
  "ald": 9697,
  "alde": 32752,
  "aldo": 26168,
  "aldÄ±r": 34280,
  "ale": 1872,
  "alel": 7698,
  "alem": 27767,
  "ales": 46149,
  "alesef": 5765,
  "alesi": 17675,
  "alet": 2127,
  "aleti": 13916,
  "alettin": 31370,
  "aley": 39528,
  "ali": 1634,
  "alia": 39550,
  "align": 44746,
  "alik": 35902,
  "alim": 4085,
  "aliman": 12631,
  "alimanÄ±": 6949,
  "alin": 20618,
  "alis": 33338,
  "alisyon": 11864,
  "ality": 28596,
  "aliyet": 1785,
  "aliz": 13454,
  "alk": 39731,
  "all": 1951,
  "alla": 38194,
  "allah": 3851,
  "allahi": 28005,
  "allahu": 24037,
  "alle": 4739,
  "alli": 17568,
  "allim": 41245,
  "ally": 15924,
  "allÃ¢h": 43120,
  "allÄ±": 12636,
  "alma": 31324,
  "alnÄ±z": 2065,
  "alo": 38350,
  "alog": 7643,
  "aloÄŁlu": 32039,
  "alp": 13269,
  "als": 21387,
  "alt": 1579,
  "alth": 21144,
  "altÄ±": 3563,
  "altÄ±cÄ±": 49431,
  "altÄ±n": 36313,
  "altÄ±na": 5280,
  "altÄ±nda": 24657,
  "alu": 48839,
  "aly": 10036,
  "alya": 12633,
  "alyaÃ§": 48180,
  "alye": 45763,
  "alÄ": 593,
  "alÄ±": 594,
  "alÄ±cÄ±": 22305,
  "alÄ±dÄ±r": 3020,
  "alÄ±k": 864,
  "alÄ±lar": 8551,
  "alÄ±larÄ±n": 26924,
  "alÄ±m": 2027,
  "alÄ±n": 14713,
  "alÄ±nÄ±n": 39736,
  "alÄ±p": 15053,
  "alÄ±sÄ±n": 45683,
  "alÄ±sÄ±nÄ±z": 8361,
  "alÄ±ydÄ±": 16945,
  "alÄ±yÄ±m": 46686,
  "alÄ±yÄ±z": 11986,
  "alÄ±ÄŁa": 34727,
  "alÄ±ÄŁÄ±": 10252,
  "alÄ±ÄŁÄ±n": 19085,
  "alÄ±ÅŁ": 553,
  "am": 289,
  "ama": 598,
  "amada": 21890,
  "amadan": 14533,
  "amadÄ±": 5238,
  "amadÄ±k": 15806,
  "amadÄ±klarÄ±": 38682,
  "amadÄ±klarÄ±nÄ±": 50050,
  "amadÄ±lar": 24362,
  "amadÄ±m": 7884,
  "amadÄ±ÄŁ": 25141,
  "amadÄ±ÄŁÄ±": 8774,
  "amadÄ±ÄŁÄ±m": 29087,
  "amadÄ±ÄŁÄ±mÄ±z": 32868,
  "amadÄ±ÄŁÄ±nÄ±": 17688,
  "amak": 1776,
  "amakta": 27115,
  "amaktadÄ±r": 9120,
  "amaktan": 41068,
  "amalar": 18755,
  "amalarÄ±": 21083,
  "amalÄ±": 30523,
  "amam": 3158,
  "amama": 29525,
  "amamak": 31096,
  "amamaktadÄ±r": 26541,
  "amamasÄ±": 14297,
  "amamÄ±ÅŁ": 10155,
  "amamÄ±ÅŁtÄ±": 28497,
  "amamÄ±ÅŁtÄ±r": 20446,
  "aman": 559,
  "amanÄ±n": 5500,
  "amanÄ±z": 8582,
  "amanÄ±za": 25856,
  "amanÄ±zÄ±": 17692,
  "amar": 26603,
  "amas": 42237,
  "amasÄ±": 2570,
  "amasÄ±na": 30192,
  "amasÄ±nÄ±": 27451,
  "amasÄ±nÄ±n": 46415,
  "amat": 30324,
  "amatik": 48375,
  "amay": 3793,
  "amaya": 5788,
  "amayabilir": 47607,
  "amayacak": 6444,
  "amayacaksÄ±nÄ±z": 41561,
  "amayacaktÄ±r": 28645,
  "amayacaÄŁÄ±": 11779,
  "amayacaÄŁÄ±m": 34312,
  "amayacaÄŁÄ±na": 48194,
  "amayacaÄŁÄ±nÄ±": 12380,
  "amayacaÄŁÄ±nÄ±z": 29288,
  "amayan": 4893,
  "amayanlar": 38728,
  "amayarak": 31699,
  "amayÄ±": 16660,
  "amayÄ±nca": 40324,
  "amayÄ±p": 37572,
  "amayÄ±z": 16261,
  "amaz": 1420,
  "amazan": 4861,
  "amazdÄ±": 35074,
  "amazlar": 14808,
  "amazsa": 34675,
  "amazsÄ±n": 26877,
  "amazsÄ±nÄ±z": 11577,
  "amb": 45724,
  "amda": 11445,
  "amdan": 21914,
  "ame": 6734,
  "amed": 44743,
  "amel": 33022,
  "ames": 8644,
  "amet": 4397,
  "ameti": 47961,
  "amettin": 41839,
  "ami": 5727,
  "amik": 5148,
  "amil": 9633,
  "amily": 21023,
  "amin": 5498,
  "amini": 8955,
  "amir": 49979,
  "amis": 50119,
  "amla": 32378,
  "amlÄ±": 25536,
  "amm": 16826,
  "ammed": 22488,
  "ammer": 25201,
  "amo": 30746,
  "amond": 39205,
  "amp": 2011,
  "ampa": 34905,
  "ampar": 37751,
  "amparÃ§a": 39910,
  "ampir": 38234,
  "ampiyon": 2981,
  "ample": 49449,
  "ampton": 48960,
  "amsun": 3124,
  "amuk": 6469,
  "amur": 33515,
  "amya": 27197,
  "amÄ": 2760,
  "amÄ±": 2761,
  "amÄ±k": 39944,
  "amÄ±n": 8483,
  "amÄ±nÄ±": 6981,
  "amÄ±yor": 5236,
  "amÄ±yordu": 30572,
  "amÄ±yorlar": 40460,
  "amÄ±yorsa": 48942,
  "amÄ±yorsanÄ±z": 29352,
  "amÄ±yorsunuz": 34806,
  "amÄ±yorum": 8877,
  "amÄ±yoruz": 18981,
  "amÄ±z": 2248,
  "amÄ±za": 9103,
  "amÄ±zda": 7673,
  "amÄ±zdaki": 26155,
  "amÄ±zdan": 14042,
  "amÄ±zla": 45027,
  "amÄ±zlÄ±k": 37331,
  "amÄ±zÄ±": 8695,
  "amÄ±zÄ±n": 10116,
  "amÄ±ÅŁ": 6145,
  "amÄ±ÅŁtÄ±": 34535,
  "amÄ±ÅŁtÄ±r": 32421,
  "an": 260,
  "ana": 2000,
  "anak": 15972,
  "anal": 36219,
  "analiz": 43214,
  "anam": 15308,
  "aname": 35477,
  "anamede": 44981,
  "anan": 1609,
  "anbul": 10459,
  "anca": 26173,
  "ancak": 36450,
  "ance": 9801,
  "ancial": 39556,
  "and": 3684,
  "anda": 1278,
  "andan": 23020,
  "andar": 5688,
  "andarma": 6437,
  "andaÅŁ": 1665,
  "ander": 20504,
  "ando": 19905,
  "andom": 50162,
  "andum": 11154,
  "andumu": 46119,
  "andÄ±": 31831,
  "andÄ±r": 3901,
  "andÄ±rma": 22115,
  "ane": 4760,
  "anet": 7832,
  "ang": 5564,
  "angir": 34890,
  "angoz": 36612,
  "ani": 1928,
  "ania": 33421,
  "anik": 14938,
  "anin": 31819,
  "anj": 42411,
  "ank": 1616,
  "ankara": 39467,
  "ankaya": 27432,
  "ankeyf": 49875,
  "ankur": 46126,
  "ankurtar": 47783,
  "ankÄ±rÄ±": 40838,
  "anlam": 38668,
  "anlar": 2289,
  "anlara": 29607,
  "anlarÄ±": 5417,
  "anlarÄ±n": 7956,
  "anlÄ±": 1241,
  "anlÄ±k": 4425,
  "anlÄ±lar": 45627,
  "anlÄ±ur": 6283,
  "anlÄ±urf": 35556,
  "anlÄ±urfa": 6674,
  "anma": 8868,
  "anmasÄ±": 18471,
  "anmÄ±ÅŁ": 14755,
  "ann": 6107,
  "anne": 19931,
  "annem": 43512,
  "anny": 44514,
  "ano": 8320,
  "anos": 47212,
  "anoz": 22341,
  "ans": 620,
  "ansa": 15092,
  "ansal": 13783,
  "anser": 27703,
  "ansever": 23462,
  "ansiyel": 41987,
  "ansiyon": 6535,
  "ansom": 47348,
  "ansomware": 49532,
  "anspor": 40444,
  "ansta": 19883,
  "ansu": 23084,
  "ansÄ": 2883,
  "ansÄ±": 2884,
  "ansÄ±n": 18828,
  "ansÄ±z": 6887,
  "ant": 1347,
  "anta": 26560,
  "antaj": 2640,
  "antasyon": 33085,
  "antaÅŁÄ±": 32643,
  "antel": 16963,
  "antep": 5220,
  "antes": 48645,
  "antez": 29461,
  "anti": 4991,
  "antin": 10303,
  "antina": 17787,
  "antol": 9754,
  "antolama": 43837,
  "antolon": 12472,
  "ants": 49570,
  "antum": 21734,
  "anya": 34919,
  "anyahu": 31801,
  "anyum": 39117,
  "anz": 15222,
  "anzÄ±m": 22861,
  "anÃ§": 12474,
  "anÄ": 506,
  "anÄ±": 508,
  "anÄ±larak": 30480,
  "anÄ±m": 4962,
  "anÄ±n": 822,
  "anÄ±nca": 35357,
  "anÄ±ndaki": 34930,
  "anÄ±p": 8659,
  "anÄ±t": 1487,
  "anÄ±tla": 9679,
  "anÄ±yor": 30138,
  "anÄ±z": 2762,
  "anÄ±za": 14464,
  "anÄ±zda": 16833,
  "anÄ±zdaki": 44075,
  "anÄ±zÄ±": 5709,
  "anÄ±zÄ±n": 15273,
  "anÄ±ÅŁ": 2478,
  "ap": 329,
  "apa": 34886,
  "apar": 28683,
  "apara": 46980,
  "apark": 39364,
  "ape": 25004,
  "apen": 47971,
  "aper": 39041,
  "aph": 37628,
  "api": 7773,
  "apiksel": 31092,
  "aplÄ±": 23844,
  "apol": 37595,
  "apor": 2204,
  "aport": 9528,
  "app": 7920,
  "appy": 40616,
  "aps": 21899,
  "aptop": 17788,
  "apur": 13629,
  "apÄ": 20611,
  "apÄ±": 20716,
  "apÄ±nar": 29718,
  "ar": 257,
  "ara": 862,
  "araba": 38315,
  "arac": 34320,
  "arada": 37993,
  "araj": 6540,
  "arak": 665,
  "araka": 44548,
  "aran": 38789,
  "arasÄ±": 1687,
  "arat": 29875,
  "aray": 29451,
  "araya": 22842,
  "arayÄ±": 45216,
  "arc": 21111,
  "arch": 17518,
  "arcÄ±klÄ±oÄŁlu": 39480,
  "ard": 3283,
  "arda": 18265,
  "ardo": 17382,
  "ardÄ±": 18562,
  "are": 3973,
  "aret": 808,
  "areti": 34578,
  "ari": 1716,
  "aria": 43519,
  "arif": 24721,
  "arik": 5751,
  "ario": 45480,
  "ark": 550,
  "arka": 12098,
  "arkadaÅŁ": 20562,
  "arkadaÅŁlar": 36821,
  "arkan": 27741,
  "arken": 2136,
  "arki": 20698,
  "arkod": 23646,
  "arkotik": 30167,
  "arkt": 39805,
  "arkÄ": 3373,
  "arkÄ±": 3374,
  "arlar": 2776,
  "arlarÄ±": 12079,
  "arlÄ±": 11471,
  "arlÄ±k": 10954,
  "arlÄ±ÄŁÄ±": 16942,
  "arm": 13063,
  "arme": 40977,
  "arn": 25184,
  "arning": 33780,
  "aro": 33721,
  "aron": 49543,
  "arp": 24334,
  "arruz": 27556,
  "ars": 15636,
  "arsa": 23729,
  "arslan": 36297,
  "art": 696,
  "artes": 49446,
  "artesi": 3078,
  "arth": 25569,
  "artma": 16698,
  "artman": 8615,
  "artmanÄ±": 21681,
  "artÄ±": 33810,
  "artÄ±k": 38531,
  "artÄ±n": 11513,
  "ary": 4484,
  "arya": 11759,
  "aryak": 15442,
  "aryakÄ±t": 16303,
  "aryen": 26033,
  "aryo": 29083,
  "arÄ": 726,
  "arÄ±": 727,
  "arÄ±ca": 29397,
  "arÄ±k": 32238,
  "arÄ±m": 4672,
  "arÄ±ma": 49134,
  "arÄ±n": 20537,
  "arÄ±nda": 5039,
  "arÄ±p": 41339,
  "arÄ±z": 23731,
  "arÅŁ": 13406,
  "arÅŁi": 35651,
  "as": 288,
  "asa": 2360,
  "asal": 10330,
  "asan": 19018,
  "asar": 1074,
  "asay": 43300,
  "asayfa": 4057,
  "asc": 40154,
  "ase": 9859,
  "aseb": 10821,
  "asebe": 15124,
  "aset": 25277,
  "asever": 48275,
  "ash": 6076,
  "ashington": 11927,
  "asi": 3506,
  "asia": 42744,
  "asiadis": 42989,
  "asil": 36900,
  "asim": 29864,
  "asin": 2107,
  "asina": 34279,
  "asinan": 46192,
  "asinda": 23537,
  "asini": 40779,
  "asinin": 26535,
  "asino": 2496,
  "asip": 41178,
  "asit": 4227,
  "asite": 14505,
  "asker": 37437,
  "askÃ¼ler": 35862,
  "aslan": 17529,
  "aslÄ±nda": 42289,
  "asm": 43395,
  "asmus": 27580,
  "asofya": 18031,
  "ason": 10449,
  "asonu": 32193,
  "asp": 12672,
  "aspor": 11945,
  "aspx": 47387,
  "ass": 10123,
  "asso": 41707,
  "ast": 854,
  "asta": 27922,
  "astam": 10110,
  "astamonu": 10623,
  "aster": 33131,
  "astgele": 37951,
  "astik": 3387,
  "astr": 15393,
  "astro": 16279,
  "astÄ±k": 12691,
  "astÄ±r": 16042,
  "asu": 16077,
  "asus": 10227,
  "asy": 22094,
  "asya": 34620,
  "asyon": 793,
  "asyona": 17608,
  "asyonal": 27528,
  "asyonel": 19414,
  "asyonlar": 17516,
  "asyonlarÄ±": 17028,
  "asyonu": 3217,
  "asyonun": 30766,
  "asyum": 22022,
  "asÄ": 379,
  "asÄ±": 380,
  "asÄ±dÄ±r": 9363,
  "asÄ±l": 824,
  "asÄ±m": 46306,
  "asÄ±n": 4105,
  "asÄ±na": 1147,
  "asÄ±nda": 606,
  "asÄ±ndaki": 2054,
  "asÄ±ndan": 2175,
  "asÄ±ndayÄ±z": 49342,
  "asÄ±nÄ±": 1242,
  "asÄ±nÄ±n": 1538,
  "asÄ±nÄ±z": 10403,
  "asÄ±ya": 21174,
  "asÄ±yla": 2665,
  "asÄ±z": 4981,
  "at": 294,
  "ata": 2935,
  "atal": 14635,
  "atan": 10031,
  "atar": 21455,
  "atay": 10121,
  "ataÅŁ": 19155,
  "atch": 10253,
  "ate": 1777,
  "ated": 13529,
  "ateg": 44985,
  "ategor": 17003,
  "ategories": 47921,
  "ategorized": 36697,
  "ategory": 31417,
  "atej": 2428,
  "aten": 2159,
  "atepe": 25518,
  "ater": 12551,
  "ates": 4494,
  "atesi": 44684,
  "ath": 13374,
  "athan": 34302,
  "ather": 30485,
  "ati": 2075,
  "atic": 40243,
  "atice": 17131,
  "atif": 2305,
  "atih": 11543,
  "atik": 1442,
  "atikan": 36319,
  "atil": 14610,
  "atin": 11034,
  "ating": 22444,
  "ation": 3032,
  "ational": 8967,
  "ations": 13399,
  "atis": 25148,
  "atistik": 6426,
  "atit": 24226,
  "ative": 24859,
  "atla": 21279,
  "atlar": 6849,
  "atlarÄ±": 7059,
  "atlarÄ±n": 22729,
  "atlÄ±": 7791,
  "atma": 12523,
  "ato": 12625,
  "atom": 21713,
  "aton": 17619,
  "atonu": 41634,
  "ator": 4233,
  "atosu": 43153,
  "atr": 20980,
  "atrader": 31519,
  "ats": 25919,
  "att": 12898,
  "atta": 8011,
  "attan": 19781,
  "attin": 40359,
  "attle": 41728,
  "atur": 3636,
  "atura": 17444,
  "atural": 38385,
  "ature": 22412,
  "atures": 48542,
  "atya": 23083,
  "atÃ§Ä±": 12518,
  "atÃ¶r": 2550,
  "atÃ¶rler": 18127,
  "atÃ¶rleri": 29908,
  "atÃ¶rÃ¼": 8987,
  "atÃ¼r": 8419,
  "atÃ¼rk": 3222,
  "atÄ": 1274,
  "atÄ±": 1275,
  "atÄ±cÄ±": 14935,
  "atÄ±larak": 38233,
  "atÄ±n": 4017,
  "atÄ±na": 19857,
  "atÄ±nda": 34487,
  "atÄ±nÄ±": 17234,
  "atÄ±nÄ±n": 20839,
  "atÄ±r": 785,
  "atÄ±rÄ±m": 4070,
  "atÄ±ÅŁ": 3322,
  "au": 12428,
  "av": 440,
  "ava": 5968,
  "avak": 41969,
  "avan": 14947,
  "avanta": 49919,
  "avantaj": 11464,
  "avar": 15461,
  "avasc": 48598,
  "avascript": 49340,
  "avat": 18151,
  "avatan": 37782,
  "avaÅŁ": 1250,
  "avdar": 40934,
  "ave": 5200,
  "avel": 18414,
  "aven": 32326,
  "aver": 15410,
  "averse": 30509,
  "avgat": 19409,
  "avi": 4308,
  "avig": 19041,
  "avih": 46805,
  "avin": 49734,
  "avir": 16670,
  "avo": 34612,
  "avor": 24492,
  "avori": 42288,
  "avul": 7387,
  "avun": 29533,
  "avur": 49643,
  "avuz": 5403,
  "avuzu": 17429,
  "avuÅŁ": 7944,
  "avv": 13538,
  "avvuf": 17185,
  "avvur": 29303,
  "avÃ¼z": 12155,
  "ax": 19008,
  "ay": 285,
  "aya": 498,
  "ayabilir": 20828,
  "ayabilirsiniz": 22217,
  "ayacak": 2754,
  "ayacaksÄ±nÄ±z": 44472,
  "ayacaktÄ±r": 30422,
  "ayacaÄŁÄ±": 46843,
  "ayacaÄŁÄ±nÄ±": 44870,
  "ayak": 29746,
  "ayalÄ±m": 29706,
  "ayan": 613,
  "ayana": 48662,
  "ayanlar": 22703,
  "ayans": 28816,
  "ayarak": 5363,
  "ayas": 7180,
  "ayasa": 5670,
  "aybin": 37203,
  "aydÄ±": 7663,
  "aydÄ±m": 38085,
  "aydÄ±n": 13095,
  "aye": 17191,
  "ayede": 42566,
  "ayen": 45023,
  "ayet": 1637,
  "ayeti": 12408,
  "ayev": 48573,
  "ayfa": 2279,
  "ayi": 3018,
  "ayip": 18413,
  "ayir": 18036,
  "ayiÅŁ": 15257,
  "ayken": 38610,
  "ayla": 3468,
  "aylaÅŁ": 1256,
  "aylon": 25700,
  "aylÄ±": 7514,
  "ayn": 10428,
  "aynÄ±": 21128,
  "ayol": 7077,
  "ayollarÄ±": 11454,
  "ayolu": 7727,
  "ayr": 36848,
  "ayrÄ±": 44600,
  "ayrÄ±ca": 34499,
  "ayy": 37530,
  "ayÄ": 520,
  "ayÄ±": 521,
  "ayÄ±cÄ±": 10746,
  "ayÄ±f": 3983,
  "ayÄ±m": 5033,
  "ayÄ±n": 886,
  "ayÄ±nca": 13518,
  "ayÄ±ndÄ±r": 24622,
  "ayÄ±p": 4350,
  "ayÄ±r": 37655,
  "ayÄ±s": 1493,
  "ayÄ±sÄ±yla": 3113,
  "ayÄ±t": 6368,
  "ayÄ±z": 12193,
  "az": 325,
  "aza": 4352,
  "azam": 38773,
  "azan": 40521,
  "azar": 1295,
  "azara": 16147,
  "azartesi": 4871,
  "azarÄ±": 7009,
  "aze": 12645,
  "azen": 7234,
  "azer": 7020,
  "azet": 1553,
  "azgirt": 38260,
  "azi": 2258,
  "azin": 8791,
  "azine": 46486,
  "azio": 45648,
  "aziz": 27480,
  "azlar": 27975,
  "azma": 23407,
  "azu": 48941,
  "azz": 9472,
  "azzam": 14234,
  "azÄ": 939,
  "azÄ±": 940,
  "azÄ±m": 3025,
  "azÄ±r": 1037,
  "azÄ±rda": 15992,
  "azÄ±t": 20471,
  "azÄ±ÄŁ": 7046,
  "aÃ§": 402,
  "aÃ§a": 17127,
  "aÃ§ao": 39599,
  "aÃ§lÄ±": 12582,
  "aÃ§Ä±k": 14113,
  "aÄŁ": 348,
  "aÄŁa": 2662,
  "aÄŁan": 3856,
  "aÄŁanÄ±": 43446,
  "aÄŁaÃ§": 19611,
  "aÄŁlÄ±": 40176,
  "aÄŁÄ": 828,
  "aÄŁÄ±": 829,
  "aÄŁÄ±m": 22526,
  "aÄŁÄ±ma": 49805,
  "aÄŁÄ±mÄ±z": 20375,
  "aÄŁÄ±mÄ±za": 42928,
  "aÄŁÄ±mÄ±zÄ±": 41623,
  "aÄŁÄ±n": 4732,
  "aÄŁÄ±na": 5975,
  "aÄŁÄ±nda": 6778,
  "aÄŁÄ±ndaki": 31958,
  "aÄŁÄ±ndan": 10927,
  "aÄŁÄ±nÄ±": 5684,
  "aÄŁÄ±nÄ±n": 6631,
  "aÄŁÄ±nÄ±z": 32834,
  "aÄŁÄ±nÄ±za": 47176,
  "aÄŁÄ±nÄ±zda": 44862,
  "aÄŁÄ±nÄ±zÄ±": 40949,
  "aÄŁÄ±r": 38252,
  "aÄŁÄ±t": 2967,
  "aÄŁÄ±yla": 24477,
  "aÄŁÄ±z": 25897,
  "aÅŁ": 311,
  "aÅŁa": 3007,
  "aÅŁaÄŁÄ±": 44379,
  "aÅŁk": 678,
  "aÅŁkÄ±n": 9007,
  "aÅŁkÄ±na": 41436,
  "aÅŁlÄ±": 45816,
  "aÅŁma": 19755,
  "aÅŁtÄ±r": 1196,
  "aÅŁtÄ±rma": 44089,
  "aÅŁÃ¼t": 26477,
  "aÅŁÄ": 6323,
  "aÅŁÄ±": 6329,
  "aÅŁÄ±k": 5294,
  "aÅŁÄ±r": 3501,
  "aÅŁÄ±rÄ±": 24277,
  "b": 66,
  "ba": 2267,
  "baa": 27486,
  "bab": 12807,
  "baba": 11803,
  "bach": 35659,
  "back": 12366,
  "background": 22907,
  "bad": 28751,
  "badem": 27029,
  "bag": 48579,
  "bah": 2168,
  "bahar": 7669,
  "bahis": 5802,
  "bahÃ§e": 34631,
  "bak": 2022,
  "bakan": 3431,
  "bakanÄ±": 10291,
  "bakanÄ±n": 42623,
  "bakteriyel": 40092,
  "bakÄ±r": 5043,
  "bal": 4980,
  "balaj": 7747,
  "ball": 25614,
  "balÄ±": 28671,
  "balÄ±k": 26417,
  "ban": 4215,
  "bana": 34162,
  "bank": 5211,
  "bap": 41111,
  "bar": 1381,
  "bara": 32799,
  "barat": 10432,
  "bardÄ±m": 27268,
  "barek": 13712,
  "baros": 27529,
  "barÄ±": 14131,
  "bas": 7447,
  "base": 36242,
  "basÄ±": 12170,
  "bat": 6362,
  "batÄ±": 22682,
  "batÄ±sÄ±nda": 50247,
  "bay": 3634,
  "bayrak": 35246,
  "baz": 14665,
  "bazÄ±": 26669,
  "baÃ§": 37556,
  "baÄŁ": 11521,
  "baÄŁa": 40049,
  "baÅŁ": 2864,
  "baÅŁa": 46414,
  "baÅŁk": 1973,
  "baÅŁka": 13565,
  "baÅŁkan": 4660,
  "baÅŁkanlÄ±ÄŁÄ±": 16471,
  "baÅŁkanÄ±": 2812,
  "baÅŁÄ": 5099,
  "baÅŁÄ±": 5100,
  "baÅŁÄ±nda": 47830,
  "bb": 35026,
  "be": 2153,
  "bean": 46141,
  "beb": 40808,
  "bebek": 35559,
  "bed": 19655,
  "bede": 30175,
  "beden": 28619,
  "bek": 5867,
  "bel": 6041,
  "beli": 20125,
  "belki": 40020,
  "bell": 42321,
  "belli": 48155,
  "ben": 5091,
  "bence": 33036,
  "bende": 30903,
  "beni": 47572,
  "benim": 19496,
  "bent": 42654,
  "ber": 1594,
  "beral": 14400,
  "berg": 9131,
  "beri": 7626,
  "berk": 38054,
  "berry": 33315,
  "bers": 44067,
  "bert": 16957,
  "bes": 21224,
  "besi": 17056,
  "best": 3602,
  "bet": 956,
  "beti": 22865,
  "betin": 29030,
  "betli": 48140,
  "bets": 45238,
  "bette": 3997,
  "betting": 33518,
  "betÃ§i": 21793,
  "bey": 5088,
  "beyaz": 11432,
  "beyazlÄ±": 27267,
  "beyazlÄ±lar": 48095,
  "beyi": 28631,
  "beyli": 21136,
  "beÅŁ": 21866,
  "bg": 33350,
  "bgcolor": 40723,
  "bi": 2651,
  "bia": 33407,
  "bid": 38373,
  "bie": 28355,
  "bih": 17956,
  "bik": 27348,
  "bil": 4845,
  "bile": 40637,
  "bilecek": 48486,
  "bileceÄŁiniz": 42834,
  "bilek": 49052,
  "bilg": 26148,
  "bilgi": 30076,
  "bilgisayar": 46937,
  "bilim": 16663,
  "bilir": 2966,
  "biliriz": 44575,
  "bilirsiniz": 10702,
  "bin": 4753,
  "binlerce": 28364,
  "bir": 852,
  "biraz": 44255,
  "bire": 21717,
  "biri": 37858,
  "birlik": 21872,
  "birliÄŁi": 10069,
  "birliÄŁiyle": 48703,
  "bis": 22509,
  "bistan": 16584,
  "bit": 8451,
  "bitraj": 42430,
  "biy": 6806,
  "biya": 49852,
  "biye": 14287,
  "biyo": 44104,
  "biyotik": 12961,
  "biz": 10840,
  "bizim": 31274,
  "biÃ§": 31394,
  "bk": 46075,
  "bkz": 22082,
  "bl": 16065,
  "ble": 15251,
  "bled": 45670,
  "blem": 2751,
  "blog": 18526,
  "blogspot": 35120,
  "blr": 37649,
  "bo": 4966,
  "board": 20285,
  "bol": 1336,
  "bolu": 25193,
  "bon": 4873,
  "boo": 27718,
  "book": 19504,
  "bor": 17999,
  "bosna": 39069,
  "bot": 31548,
  "bour": 27464,
  "bourne": 48125,
  "box": 10863,
  "boy": 15274,
  "boyutu": 44616,
  "boz": 28092,
  "boÄŁa": 38075,
  "boÅŁ": 34439,
  "bps": 29377,
  "br": 1961,
  "brahim": 4751,
  "bran": 31397,
  "break": 42110,
  "brek": 9398,
  "brid": 46905,
  "bridge": 25664,
  "bro": 43870,
  "brÄ±s": 4168,
  "bs": 36164,
  "bu": 2056,
  "buc": 43191,
  "bucks": 48024,
  "bugun": 49524,
  "bugÃ¼n": 28952,
  "buki": 12326,
  "bul": 1030,
  "bulans": 10371,
  "bullah": 29082,
  "bulun": 47641,
  "bulut": 32487,
  "bun": 16404,
  "buntu": 49470,
  "bunu": 32649,
  "bunun": 31239,
  "bur": 3380,
  "burada": 40422,
  "burg": 8347,
  "burgaz": 30377,
  "burger": 33447,
  "burgh": 46100,
  "burnu": 18688,
  "burt": 14063,
  "bury": 46985,
  "bus": 21129,
  "but": 33766,
  "buy": 45494,
  "buz": 27172,
  "buÄŁ": 31155,
  "by": 9753,
  "bÃ®": 33748,
  "bÃ¶": 35605,
  "bÃ¶l": 20328,
  "bÃ¶lÃ¼m": 38424,
  "bÃ¶yle": 37117,
  "bÃ¼k": 32560,
  "bÃ¼l": 19627,
  "bÃ¼r": 9757,
  "bÃ¼s": 8040,
  "bÃ¼sÃ¼": 40900,
  "bÃ¼tÃ¼n": 20993,
  "bÃ¼yÃ¼k": 20344,
  "bÃ¼z": 31588,
  "bÄ": 19284,
  "bÄ±": 19548,
  "bÄ±n": 41782,
  "bÄ±yÄ±k": 45669,
  "c": 67,
  "ca": 575,
  "caada": 35884,
  "cada": 47516,
  "cade": 39982,
  "cah": 41347,
  "cahamam": 49106,
  "cak": 688,
  "cal": 8292,
  "calan": 13688,
  "calar": 31716,
  "calarÄ±": 34530,
  "calping": 33982,
  "calÄ±": 15086,
  "calÄ±k": 12521,
  "cam": 13731,
  "can": 2093,
  "canlÄ±": 24846,
  "canÄ±": 44583,
  "canÄ±n": 41165,
  "cao": 33916,
  "cap": 33878,
  "car": 4688,
  "carat": 46916,
  "card": 29647,
  "casino": 19060,
  "cast": 20128,
  "casÄ±": 14710,
  "casÄ±na": 27217,
  "cat": 34968,
  "categorized": 41776,
  "cay": 15125,
  "caya": 11799,
  "caÄŁÄ±z": 42015,
  "cc": 23281,
  "cd": 24528,
  "ce": 470,
  "cean": 46295,
  "ced": 21327,
  "cedes": 14969,
  "cek": 1537,
  "ceksiniz": 26350,
  "cekten": 32334,
  "cel": 903,
  "cele": 48270,
  "celer": 49070,
  "celi": 5144,
  "cell": 8755,
  "celona": 14945,
  "cem": 18773,
  "cen": 17892,
  "cent": 46523,
  "center": 16458,
  "cep": 25422,
  "cept": 31934,
  "cer": 13576,
  "ces": 16144,
  "cesi": 11789,
  "cesine": 25957,
  "cess": 13732,
  "cet": 41686,
  "cev": 19098,
  "cevap": 39472,
  "ceye": 41022,
  "ceÄŁ": 2564,
  "ceÄŁi": 7074,
  "ceÄŁim": 21130,
  "ceÄŁin": 50217,
  "ceÄŁine": 30754,
  "ceÄŁini": 21223,
  "ceÄŁiniz": 36183,
  "ceÄŁiz": 17040,
  "ch": 1507,
  "cha": 33420,
  "chain": 13050,
  "chan": 16210,
  "change": 22124,
  "chat": 23236,
  "che": 22359,
  "chen": 27733,
  "cher": 17372,
  "chester": 16576,
  "chi": 24429,
  "chise": 32610,
  "cho": 42960,
  "ci": 817,
  "cia": 26095,
  "cial": 26682,
  "cid": 9289,
  "cide": 21660,
  "cidi": 34455,
  "cience": 49467,
  "cih": 9901,
  "cik": 14858,
  "cil": 3646,
  "ciler": 5155,
  "cilere": 16751,
  "cileri": 14154,
  "cilerin": 11662,
  "cili": 24194,
  "cilik": 4896,
  "ciliÄŁi": 19374,
  "ciliÄŁin": 40731,
  "cim": 13103,
  "cimek": 27787,
  "cin": 8802,
  "cing": 46748,
  "cini": 41062,
  "cinin": 15764,
  "cinsel": 21281,
  "cir": 40278,
  "cis": 17478,
  "cisi": 5015,
  "cistan": 15567,
  "cit": 24669,
  "civ": 45751,
  "ciye": 27001,
  "ciz": 26800,
  "ciÄŁer": 10781,
  "ck": 13921,
  "cle": 28483,
  "cm": 9784,
  "co": 1904,
  "code": 47272,
  "coin": 2652,
  "cok": 38446,
  "col": 14307,
  "color": 20028,
  "com": 1322,
  "come": 48605,
  "comm": 35532,
  "con": 9390,
  "content": 25486,
  "cook": 38087,
  "cooter": 41310,
  "cope": 33737,
  "cor": 26939,
  "cord": 32153,
  "coun": 43027,
  "count": 18449,
  "cr": 45560,
  "cra": 41608,
  "craft": 25095,
  "cret": 4715,
  "crip": 50157,
  "cs": 29909,
  "ct": 40725,
  "cu": 762,
  "cuk": 9252,
  "cul": 34216,
  "cular": 12409,
  "cularÄ±": 37019,
  "cularÄ±n": 29937,
  "culuk": 9949,
  "culuÄŁ": 27996,
  "culuÄŁu": 35423,
  "cum": 42379,
  "cuma": 37826,
  "cun": 42524,
  "cunun": 12337,
  "cup": 28577,
  "cur": 29871,
  "cus": 22694,
  "cusu": 10273,
  "cut": 1941,
  "cuya": 44717,
  "cuz": 9559,
  "cy": 13283,
  "cÃ¼": 1943,
  "cÃ¼k": 7617,
  "cÃ¼l": 14494,
  "cÃ¼ler": 46216,
  "cÃ¼lÃ¼k": 47914,
  "cÃ¼m": 23568,
  "cÃ¼men": 47975,
  "cÃ¼sÃ¼": 7797,
  "cÄ": 569,
  "cÄ±": 570,
  "cÄ±k": 7016,
  "cÄ±l": 36957,
  "cÄ±lar": 4333,
  "cÄ±lara": 36970,
  "cÄ±larÄ±": 10313,
  "cÄ±larÄ±n": 11189,
  "cÄ±lÄ±k": 3731,
  "cÄ±lÄ±ÄŁ": 7712,
  "cÄ±lÄ±ÄŁa": 17984,
  "cÄ±lÄ±ÄŁÄ±": 7554,
  "cÄ±lÄ±ÄŁÄ±n": 20282,
  "cÄ±lÄ±ÄŁÄ±na": 30182,
  "cÄ±lÄ±ÄŁÄ±nÄ±": 24325,
  "cÄ±lÄ±ÄŁÄ±nÄ±n": 40607,
  "cÄ±m": 23139,
  "cÄ±mÄ±z": 30666,
  "cÄ±n": 22116,
  "cÄ±nÄ±": 26750,
  "cÄ±nÄ±n": 6502,
  "cÄ±nÄ±z": 37911,
  "cÄ±oÄŁlu": 12804,
  "cÄ±sÄ±": 2388,
  "cÄ±sÄ±na": 31587,
  "cÄ±sÄ±nÄ±": 46903,
  "cÄ±sÄ±nÄ±n": 21970,
  "cÄ±ya": 9100,
  "cÄ±yla": 46720,
  "cÄ±yÄ±": 23518,
  "d": 68,
  "da": 295,
  "daa": 5732,
  "dad": 19691,
  "dadÄ±": 34599,
  "dadÄ±r": 46135,
  "dae": 42490,
  "dafi": 47816,
  "dah": 39704,
  "daha": 12589,
  "daj": 16993,
  "dak": 2901,
  "daki": 668,
  "dakik": 41463,
  "dakika": 28666,
  "dakiler": 21527,
  "dakilerden": 16762,
  "dakilere": 39631,
  "dakileri": 32466,
  "dakilerin": 36449,
  "dakine": 44620,
  "dakini": 46067,
  "dakinin": 48085,
  "dal": 3363,
  "dalar": 16231,
  "dalga": 35455,
  "dalÄ±": 18586,
  "dalÄ±k": 10083,
  "dam": 3538,
  "damar": 32895,
  "dan": 362,
  "dana": 1974,
  "dane": 43966,
  "dano": 43727,
  "danoz": 22878,
  "dans": 25474,
  "danya": 29601,
  "danÄ": 6883,
  "danÄ±": 6884,
  "danÄ±n": 11151,
  "danÄ±ÅŁ": 35521,
  "dap": 44011,
  "dar": 1174,
  "daroÄŁlu": 6083,
  "darÄ±": 32669,
  "das": 20080,
  "dasÄ±": 12493,
  "dasÄ±n": 37264,
  "dasÄ±nÄ±z": 20792,
  "dat": 5354,
  "data": 38647,
  "date": 28346,
  "datma": 37924,
  "dav": 32396,
  "day": 2255,
  "dayan": 31120,
  "daydÄ±": 11578,
  "daydÄ±m": 45239,
  "dayken": 16652,
  "daysa": 29007,
  "dayÄ±": 46143,
  "dayÄ±m": 15676,
  "dayÄ±z": 7451,
  "daÄŁ": 2982,
  "daÄŁÄ": 7459,
  "daÄŁÄ±": 7460,
  "daÄŁÄ±n": 33917,
  "daÅŁ": 3794,
  "db": 31992,
  "dd": 41344,
  "de": 292,
  "dea": 43241,
  "deal": 22228,
  "deb": 6350,
  "debiyat": 7824,
  "ded": 7758,
  "dede": 39462,
  "dedi": 14737,
  "dedir": 37033,
  "def": 40740,
  "dek": 4872,
  "deki": 739,
  "dekiler": 32518,
  "dekileri": 45830,
  "dekli": 29373,
  "deks": 29277,
  "deksi": 13719,
  "del": 9469,
  "dele": 42008,
  "delen": 15904,
  "deler": 12915,
  "deleri": 20102,
  "delerin": 41665,
  "deli": 23193,
  "delik": 12210,
  "dem": 1407,
  "deme": 21870,
  "demi": 6284,
  "demik": 50145,
  "demir": 5095,
  "demirli": 26981,
  "demokr": 24891,
  "demokratik": 40822,
  "demy": 30738,
  "den": 390,
  "dence": 35139,
  "denin": 9172,
  "deniz": 4661,
  "dent": 19782,
  "dents": 42852,
  "depres": 45288,
  "der": 909,
  "dere": 9792,
  "deres": 13702,
  "deri": 6084,
  "ders": 33117,
  "des": 5610,
  "desi": 8819,
  "desinde": 30751,
  "desine": 41486,
  "desliga": 37791,
  "dest": 14364,
  "destek": 43616,
  "det": 1502,
  "dev": 4587,
  "devamÄ±": 30386,
  "devlet": 14620,
  "devu": 27481,
  "dex": 19167,
  "dey": 33702,
  "dez": 42958,
  "deÃ§al": 47062,
  "deÄŁ": 7107,
  "deÄŁer": 12647,
  "deÄŁi": 22660,
  "deÄŁiÅŁtir": 36345,
  "deÅŁ": 2117,
  "df": 12147,
  "di": 370,
  "dia": 40181,
  "dian": 33239,
  "dic": 49728,
  "did": 48288,
  "die": 22034,
  "dies": 48539,
  "dig": 25091,
  "digi": 37688,
  "dik": 1078,
  "dikap": 41493,
  "diki": 14099,
  "dikkat": 48797,
  "dikleri": 3744,
  "diklerini": 6075,
  "dikten": 4252,
  "dikÃ§e": 20964,
  "dil": 8930,
  "diler": 3642,
  "dilerde": 18857,
  "dilik": 10234,
  "dim": 1848,
  "din": 1892,
  "dinav": 35142,
  "dinde": 10775,
  "dinden": 45663,
  "dine": 15853,
  "ding": 7667,
  "dini": 12086,
  "dinin": 24879,
  "diniz": 5973,
  "dinli": 42521,
  "dinÃ§": 40708,
  "dio": 49921,
  "dioksit": 29423,
  "dip": 21256,
  "dir": 435,
  "dirim": 8350,
  "dirler": 18067,
  "dirme": 13777,
  "dirne": 7909,
  "dis": 13744,
  "disk": 46364,
  "distan": 31341,
  "dit": 3316,
  "dition": 46129,
  "div": 27015,
  "divan": 39625,
  "diven": 7144,
  "diveni": 36309,
  "diy": 7282,
  "diye": 6068,
  "diyet": 46156,
  "diyor": 40156,
  "diyse": 21033,
  "diyseniz": 33799,
  "diz": 24560,
  "diÄŁ": 1054,
  "diÄŁer": 25276,
  "diÄŁi": 1075,
  "diÄŁim": 4789,
  "diÄŁimde": 27397,
  "diÄŁimi": 25494,
  "diÄŁimiz": 3981,
  "diÄŁimizde": 25325,
  "diÄŁimizi": 33951,
  "diÄŁin": 14911,
  "diÄŁinde": 4203,
  "diÄŁinden": 15449,
  "diÄŁine": 13550,
  "diÄŁini": 2381,
  "diÄŁinin": 27829,
  "diÄŁiniz": 4466,
  "diÄŁinizde": 15671,
  "diÄŁinizi": 29285,
  "diÅŁ": 39322,
  "diÅŁi": 45643,
  "dk": 19452,
  "dle": 47639,
  "dll": 25113,
  "dm": 46895,
  "do": 7062,
  "doc": 50099,
  "dog": 27157,
  "dok": 25076,
  "doktor": 49049,
  "dokuz": 41877,
  "dol": 5830,
  "dolar": 47726,
  "dolsun": 39975,
  "dom": 26898,
  "don": 11836,
  "door": 40648,
  "dor": 37579,
  "dorf": 39271,
  "dos": 45834,
  "dost": 37023,
  "dot": 39352,
  "down": 45814,
  "doÄŁ": 7403,
  "doÄŁal": 39973,
  "doÄŁan": 1893,
  "doÄŁdu": 20525,
  "doÄŁru": 21780,
  "doÄŁu": 9992,
  "doÄŁusunda": 46679,
  "dr": 16024,
  "dra": 43867,
  "dragon": 27701,
  "dress": 35704,
  "dro": 28074,
  "drop": 44326,
  "ds": 14343,
  "du": 372,
  "duc": 11170,
  "duct": 30627,
  "duction": 38770,
  "ducts": 48006,
  "duh": 38417,
  "duino": 39596,
  "duk": 1890,
  "duklarÄ±": 5431,
  "duklarÄ±nÄ±": 10496,
  "duktan": 7855,
  "dukÃ§a": 10452,
  "dul": 35104,
  "dular": 23951,
  "dullah": 19549,
  "dum": 1916,
  "dun": 7945,
  "dunun": 19737,
  "dunuz": 9956,
  "dur": 873,
  "durma": 20298,
  "durum": 42788,
  "dus": 31768,
  "dust": 30913,
  "dut": 36285,
  "duy": 17558,
  "duz": 39169,
  "duÄŁ": 1534,
  "duÄŁu": 1370,
  "duÄŁum": 6935,
  "duÄŁumda": 36489,
  "duÄŁumu": 36108,
  "duÄŁumuz": 5185,
  "duÄŁumuzda": 39837,
  "duÄŁun": 24059,
  "duÄŁuna": 16463,
  "duÄŁunda": 8830,
  "duÄŁundan": 18098,
  "duÄŁunu": 3382,
  "duÄŁunun": 35082,
  "duÄŁunuz": 5729,
  "duÄŁunuzda": 21552,
  "duÄŁunuzu": 37690,
  "dy": 9723,
  "dz": 35405,
  "dÃ®": 13030,
  "dÃ®n": 48374,
  "dÃ¶": 18337,
  "dÃ¶ken": 31170,
  "dÃ¶n": 7713,
  "dÃ¶nÃ¼ÅŁ": 19450,
  "dÃ¶rt": 18699,
  "dÃ¶rtgen": 25239,
  "dÃ¼": 953,
  "dÃ¼k": 2938,
  "dÃ¼kleri": 20626,
  "dÃ¼klerini": 25693,
  "dÃ¼ksiyon": 23253,
  "dÃ¼kten": 13556,
  "dÃ¼kÃ§e": 25299,
  "dÃ¼l": 2114,
  "dÃ¼le": 31085,
  "dÃ¼ler": 34163,
  "dÃ¼lÃ¼s": 43055,
  "dÃ¼m": 4028,
  "dÃ¼n": 6783,
  "dÃ¼ny": 33326,
  "dÃ¼nya": 35561,
  "dÃ¼nÃ¼z": 20299,
  "dÃ¼r": 760,
  "dÃ¼rme": 45856,
  "dÃ¼rÃ¼lebilir": 17384,
  "dÃ¼y": 38901,
  "dÃ¼z": 4928,
  "dÃ¼zen": 27846,
  "dÃ¼zÃ¼": 17312,
  "dÃ¼ÄŁ": 2141,
  "dÃ¼ÄŁÃ¼": 2816,
  "dÃ¼ÄŁÃ¼m": 23483,
  "dÃ¼ÄŁÃ¼mÃ¼z": 26151,
  "dÃ¼ÄŁÃ¼n": 46302,
  "dÃ¼ÄŁÃ¼nde": 11324,
  "dÃ¼ÄŁÃ¼nden": 34541,
  "dÃ¼ÄŁÃ¼ne": 30293,
  "dÃ¼ÄŁÃ¼nÃ¼": 5804,
  "dÃ¼ÄŁÃ¼nÃ¼z": 23042,
  "dÃ¼ÅŁ": 15662,
  "dÄ": 507,
  "dÄ±": 509,
  "dÄ±k": 1233,
  "dÄ±klarÄ±": 3939,
  "dÄ±klarÄ±nda": 29535,
  "dÄ±klarÄ±nÄ±": 8492,
  "dÄ±ktan": 3708,
  "dÄ±kÃ§a": 15548,
  "dÄ±lar": 7138,
  "dÄ±m": 823,
  "dÄ±n": 1969,
  "dÄ±ndan": 1431,
  "dÄ±nÄ±z": 10271,
  "dÄ±r": 458,
  "dÄ±ra": 28505,
  "dÄ±ran": 14771,
  "dÄ±rlar": 24302,
  "dÄ±rma": 22854,
  "dÄ±rÄ±m": 4676,
  "dÄ±ysa": 26157,
  "dÄ±ysanÄ±z": 28893,
  "dÄ±z": 2825,
  "dÄ±zÄ±": 11494,
  "dÄ±Ã§": 43441,
  "dÄ±ÄŁ": 1205,
  "dÄ±ÄŁa": 29679,
  "dÄ±ÄŁÄ±": 943,
  "dÄ±ÄŁÄ±m": 5989,
  "dÄ±ÄŁÄ±mda": 28319,
  "dÄ±ÄŁÄ±mÄ±": 26991,
  "dÄ±ÄŁÄ±mÄ±z": 5543,
  "dÄ±ÄŁÄ±mÄ±zda": 26166,
  "dÄ±ÄŁÄ±mÄ±zÄ±": 36609,
  "dÄ±ÄŁÄ±n": 17530,
  "dÄ±ÄŁÄ±na": 8557,
  "dÄ±ÄŁÄ±nda": 2969,
  "dÄ±ÄŁÄ±ndan": 11349,
  "dÄ±ÄŁÄ±nÄ±": 1763,
  "dÄ±ÄŁÄ±nÄ±n": 17630,
  "dÄ±ÄŁÄ±nÄ±z": 5707,
  "dÄ±ÄŁÄ±nÄ±zda": 16925,
  "dÄ±ÄŁÄ±nÄ±zÄ±": 29378,
  "dÄ±ÅŁ": 6904,
  "dÄ±ÅŁÄ±": 7706,
  "dÄ±ÅŁÄ±nda": 29139,
  "e": 69,
  "ea": 18089,
  "eam": 40152,
  "ean": 10782,
  "ear": 9619,
  "earch": 17084,
  "eb": 442,
  "eba": 26867,
  "ebap": 20341,
  "ebaÅŁÄ±": 27642,
  "ebbet": 25445,
  "ebe": 6088,
  "ebek": 2517,
  "ebelik": 9249,
  "eber": 23757,
  "ebet": 16116,
  "ebi": 6521,
  "ebil": 2509,
  "ebildi": 34665,
  "ebildiÄŁi": 20742,
  "ebildiÄŁini": 38138,
  "ebilecek": 3096,
  "ebilecekler": 46299,
  "ebilecekleri": 23999,
  "ebileceklerini": 45420,
  "ebileceksiniz": 26022,
  "ebilecektir": 32032,
  "ebileceÄŁi": 7326,
  "ebileceÄŁim": 31741,
  "ebileceÄŁimiz": 17344,
  "ebileceÄŁine": 33359,
  "ebileceÄŁini": 9268,
  "ebileceÄŁiniz": 8126,
  "ebileceÄŁinizi": 37593,
  "ebilen": 6995,
  "ebilir": 786,
  "ebilirdi": 40024,
  "ebilirim": 7042,
  "ebiliriz": 4248,
  "ebilirler": 9031,
  "ebilirsin": 14895,
  "ebilirsiniz": 1713,
  "ebiliyor": 4462,
  "ebiliyorlar": 28711,
  "ebiliyorsunuz": 18577,
  "ebiliyorum": 46273,
  "ebiliyoruz": 18363,
  "ebilm": 2693,
  "ebilme": 14004,
  "ebilmek": 5340,
  "ebilmekte": 35002,
  "ebilmektedir": 7105,
  "ebilmeleri": 25809,
  "ebilmemiz": 46760,
  "ebilmeniz": 25268,
  "ebilmesi": 7549,
  "ebilmesini": 45050,
  "ebilmiÅŁ": 36784,
  "ebir": 9605,
  "ebiyle": 44442,
  "ebo": 41647,
  "ebolu": 43128,
  "ebook": 3227,
  "ebra": 46976,
  "ebze": 8852,
  "ec": 382,
  "eca": 38255,
  "ecan": 19893,
  "eccÃ¼": 33472,
  "ece": 1328,
  "eceg": 19564,
  "ecek": 566,
  "ecekler": 8485,
  "ecekleri": 20715,
  "eceklerini": 17164,
  "eceksin": 25547,
  "eceksiniz": 5892,
  "ecekti": 34577,
  "ecektir": 2668,
  "eceli": 25145,
  "ecen": 31845,
  "eceÄŁ": 707,
  "eceÄŁe": 27313,
  "eceÄŁi": 1545,
  "eceÄŁim": 4435,
  "eceÄŁimi": 23325,
  "eceÄŁimiz": 5811,
  "eceÄŁimize": 42221,
  "eceÄŁimizi": 19645,
  "eceÄŁin": 16314,
  "eceÄŁinden": 17116,
  "eceÄŁine": 4608,
  "eceÄŁini": 1920,
  "eceÄŁinin": 20814,
  "eceÄŁiniz": 2419,
  "eceÄŁinize": 35828,
  "eceÄŁinizi": 14998,
  "eceÄŁiz": 3189,
  "ech": 7098,
  "echt": 42899,
  "eci": 2772,
  "ecial": 39107,
  "ecik": 6606,
  "eciler": 8028,
  "ecilere": 28166,
  "ecileri": 26464,
  "ecilerin": 17511,
  "ecilik": 9747,
  "eciliÄŁi": 39219,
  "ecinin": 39437,
  "ecisi": 39804,
  "eck": 11395,
  "ecoin": 22476,
  "ect": 5410,
  "ected": 15438,
  "ection": 20276,
  "ective": 36616,
  "ector": 28163,
  "ects": 27460,
  "ed": 313,
  "edIn": 23464,
  "eda": 1433,
  "edago": 37638,
  "edan": 16654,
  "edar": 50024,
  "edat": 10809,
  "edav": 1566,
  "edava": 6371,
  "edd": 13098,
  "eddin": 15180,
  "eddÃ¼t": 15098,
  "ede": 533,
  "edeb": 38351,
  "edef": 1490,
  "edek": 5224,
  "edeki": 3421,
  "edektif": 23586,
  "eden": 583,
  "edeni": 3640,
  "edeniyet": 8654,
  "eder": 4822,
  "ederal": 12806,
  "ederasyon": 5106,
  "edi": 628,
  "edia": 10095,
  "ediat": 48119,
  "edik": 1401,
  "edikal": 16864,
  "edikleri": 4436,
  "ediklerini": 6343,
  "edikten": 19890,
  "edikÃ§e": 31070,
  "ediler": 4016,
  "edim": 2060,
  "edin": 9175,
  "ediniz": 23903,
  "edio": 47048,
  "edir": 651,
  "edirgin": 15276,
  "edisi": 12339,
  "edit": 27533,
  "editepe": 46920,
  "ediy": 3282,
  "ediye": 2536,
  "ediyesi": 12386,
  "ediyse": 47281,
  "ediyseniz": 38970,
  "ediÃ¼zzaman": 23902,
  "ediÄŁ": 801,
  "ediÄŁi": 1530,
  "ediÄŁim": 5314,
  "ediÄŁimi": 34012,
  "ediÄŁimiz": 4584,
  "ediÄŁimizi": 45795,
  "ediÄŁin": 20656,
  "ediÄŁinde": 28282,
  "ediÄŁinden": 24749,
  "ediÄŁine": 20821,
  "ediÄŁini": 3252,
  "ediÄŁinin": 43301,
  "ediÄŁiniz": 4323,
  "ediÄŁinizde": 47253,
  "ediÄŁinizi": 33465,
  "edo": 49183,
  "edr": 23878,
  "edral": 41725,
  "edrali": 40530,
  "edrich": 49270,
  "eds": 40550,
  "edu": 23367,
  "edy": 32073,
  "edya": 30888,
  "ee": 7639,
  "eed": 21669,
  "eee": 44493,
  "eet": 17957,
  "ef": 660,
  "efa": 16089,
  "efabrik": 27255,
  "efe": 34253,
  "efend": 38057,
  "efendi": 18008,
  "efer": 2337,
  "eferik": 39714,
  "eferru": 48276,
  "eff": 15489,
  "efi": 23611,
  "efon": 1408,
  "efore": 39356,
  "efox": 27289,
  "eft": 33009,
  "eg": 1149,
  "ega": 15012,
  "egal": 37810,
  "egan": 49787,
  "egasus": 20024,
  "ege": 36620,
  "egel": 26180,
  "egelen": 33033,
  "egem": 31434,
  "egen": 24117,
  "ego": 22728,
  "egor": 2717,
  "egÃ¼l": 25945,
  "eh": 592,
  "ehan": 15982,
  "ehane": 45732,
  "ehber": 34851,
  "ehir": 1057,
  "ehlivan": 22782,
  "ehmet": 2354,
  "ehr": 9447,
  "ehra": 20278,
  "ehri": 11829,
  "ei": 42861,
  "eing": 36602,
  "ek": 280,
  "eka": 36820,
  "ekar": 39703,
  "eke": 23580,
  "eker": 6488,
  "eket": 1164,
  "eki": 567,
  "ekil": 4648,
  "ekilde": 36558,
  "ekileÅŁtir": 36471,
  "ekili": 10173,
  "ekim": 3829,
  "ekimi": 24237,
  "ekin": 16008,
  "ekir": 22724,
  "ekiz": 13293,
  "ekk": 1676,
  "ekke": 14999,
  "ekkep": 22351,
  "ekkur": 23248,
  "ekkÃ¼l": 21675,
  "ekkÃ¼r": 1948,
  "ekkÃ¼rler": 10911,
  "ekler": 14324,
  "ekleri": 48187,
  "ekli": 1798,
  "ekom": 9088,
  "ekonomi": 46840,
  "ekonomik": 19477,
  "eks": 3295,
  "eksan": 27658,
  "eksika": 14440,
  "eksiyon": 3154,
  "ekt": 616,
  "ektan": 29141,
  "ektar": 47083,
  "ektaÅŁ": 8062,
  "ekte": 6634,
  "ektedir": 1415,
  "ekteki": 31243,
  "ekten": 2024,
  "ektesiniz": 28295,
  "ekteydi": 35182,
  "ekteyiz": 17548,
  "ekti": 49898,
  "ektif": 7672,
  "ektik": 32515,
  "ektomi": 43381,
  "ektÃ¶r": 1267,
  "ektÃ¶rler": 50130,
  "ektÃ¶rÃ¼": 5674,
  "ektÃ¼el": 19916,
  "ekÃ¶y": 30717,
  "ekÃ¼l": 13471,
  "ekÃ¼ler": 31069,
  "el": 279,
  "ela": 11146,
  "elal": 6455,
  "elale": 46169,
  "elan": 26807,
  "elance": 43714,
  "eland": 36495,
  "elasyon": 38783,
  "eld": 10574,
  "ele": 1610,
  "eledi": 28236,
  "elegram": 22317,
  "elek": 6210,
  "elekt": 18025,
  "elektrik": 25511,
  "elem": 22213,
  "eleme": 10779,
  "elemek": 41076,
  "elen": 1865,
  "elendi": 33403,
  "elendir": 6547,
  "elenen": 20403,
  "elenme": 39710,
  "elenmesi": 40212,
  "elenmiÅŁ": 20284,
  "eler": 404,
  "elerce": 17967,
  "elerde": 2039,
  "elerdeki": 17293,
  "elerden": 3399,
  "elerdir": 7028,
  "elere": 1926,
  "elerek": 7051,
  "eleri": 724,
  "eleridir": 47846,
  "elerim": 40249,
  "elerimiz": 10820,
  "elerimizde": 30577,
  "elerimize": 48502,
  "elerimizi": 25742,
  "elerimizin": 23207,
  "elerin": 1339,
  "elerinde": 2714,
  "elerindeki": 13564,
  "elerinden": 3868,
  "elerine": 2439,
  "elerini": 1876,
  "elerinin": 2352,
  "eleriniz": 33283,
  "elerinizi": 20585,
  "eleriyle": 7511,
  "elerle": 4026,
  "eless": 38529,
  "elet": 48743,
  "eley": 18301,
  "eleyen": 19635,
  "eleyerek": 48058,
  "eleyin": 40920,
  "eleÅŁ": 32896,
  "eleÅŁtir": 20530,
  "eli": 637,
  "elia": 47563,
  "elidir": 2532,
  "elif": 9241,
  "elik": 740,
  "elikle": 2645,
  "elikler": 46659,
  "elikli": 17841,
  "elikop": 10583,
  "elikopter": 11610,
  "elikte": 27305,
  "eliler": 17934,
  "elilerin": 35863,
  "elim": 1440,
  "elin": 11252,
  "eline": 35299,
  "eliner": 48676,
  "eling": 26976,
  "elinin": 45509,
  "elisin": 31655,
  "elisiniz": 7448,
  "elispor": 29715,
  "elit": 45351,
  "eliydi": 35622,
  "eliyim": 19717,
  "eliyiz": 11862,
  "eliÄŁ": 3663,
  "eliÄŁe": 26239,
  "eliÄŁi": 6473,
  "eliÄŁin": 14826,
  "eliÄŁine": 18830,
  "eliÄŁini": 28532,
  "eliÄŁinin": 49258,
  "ell": 4577,
  "ella": 15402,
  "elle": 6988,
  "ellef": 12074,
  "eller": 14235,
  "elli": 8070,
  "ellif": 36548,
  "ello": 28241,
  "ellow": 49769,
  "elop": 22315,
  "elopment": 33625,
  "els": 26118,
  "elsea": 25602,
  "elt": 3696,
  "elti": 43671,
  "ely": 18558,
  "elye": 44538,
  "elzim": 40070,
  "em": 302,
  "ema": 4229,
  "email": 21612,
  "emal": 2863,
  "eman": 19980,
  "emat": 26668,
  "ematik": 6400,
  "emb": 33011,
  "embe": 4289,
  "ember": 14452,
  "embeyaz": 34700,
  "emde": 13237,
  "emden": 42079,
  "eme": 1217,
  "emeden": 28200,
  "emedi": 10853,
  "emedik": 21019,
  "emedikleri": 49073,
  "emediler": 47321,
  "emedim": 12471,
  "emediÄŁi": 13584,
  "emediÄŁim": 47492,
  "emediÄŁimiz": 46948,
  "emediÄŁini": 30239,
  "emek": 993,
  "emekte": 24173,
  "emektedir": 10593,
  "emel": 45182,
  "emelen": 19561,
  "emeler": 15595,
  "emeleri": 13342,
  "emeli": 35850,
  "emelidir": 49997,
  "emem": 8003,
  "ememe": 43361,
  "ememektedir": 34042,
  "ememesi": 21307,
  "ememiÅŁ": 16125,
  "ememiÅŁtir": 34941,
  "emen": 3056,
  "emenin": 29589,
  "emens": 31348,
  "ement": 12504,
  "emer": 29857,
  "emesi": 4346,
  "emesine": 35975,
  "emesini": 35484,
  "emey": 4263,
  "emeye": 12724,
  "emeyecek": 10332,
  "emeyecektir": 44738,
  "emeyeceÄŁi": 18565,
  "emeyeceÄŁim": 34482,
  "emeyeceÄŁini": 19927,
  "emeyen": 6317,
  "emeyenler": 49559,
  "emeyi": 27471,
  "emeyiz": 16005,
  "emez": 2796,
  "emezdi": 38601,
  "emezler": 24914,
  "emezsin": 32057,
  "emezsiniz": 16601,
  "emi": 2403,
  "emik": 23614,
  "emin": 2475,
  "emir": 30304,
  "emit": 32344,
  "emium": 25986,
  "emiyor": 7748,
  "emiyordu": 40995,
  "emiyorlar": 46726,
  "emiyorsanÄ±z": 43305,
  "emiyorum": 9883,
  "emiyoruz": 17580,
  "emiz": 1020,
  "emizde": 2703,
  "emizdeki": 15938,
  "emizden": 22573,
  "emize": 5008,
  "emizi": 5344,
  "emizin": 4230,
  "emizle": 34747,
  "emiÅŁ": 4144,
  "emiÅŁti": 22200,
  "emiÅŁtir": 13930,
  "emli": 4999,
  "emm": 1660,
  "emmel": 3764,
  "emmuz": 2266,
  "emon": 23837,
  "emre": 36702,
  "emy": 42653,
  "en": 264,
  "ena": 6109,
  "enault": 19007,
  "enc": 2073,
  "ence": 7544,
  "encefil": 27213,
  "encer": 4750,
  "encere": 10400,
  "ences": 29878,
  "enci": 13383,
  "encia": 34130,
  "enciye": 45215,
  "ency": 30029,
  "end": 1245,
  "ende": 6456,
  "endek": 19194,
  "ender": 33611,
  "endi": 3993,
  "endim": 8259,
  "ends": 22928,
  "ene": 3623,
  "enek": 1580,
  "enekleri": 48433,
  "enekon": 18063,
  "eneksel": 12317,
  "enekÅŁe": 48381,
  "enen": 19130,
  "ener": 2390,
  "eneral": 12644,
  "enerasyon": 32236,
  "enerbah": 3652,
  "enerbahÃ§e": 3865,
  "enerji": 46168,
  "eneÄŁi": 47935,
  "enf": 9335,
  "eng": 3692,
  "engel": 31468,
  "engen": 34146,
  "engin": 2905,
  "engiz": 8330,
  "enh": 26618,
  "enhag": 32889,
  "eni": 530,
  "enin": 863,
  "enix": 42482,
  "eniz": 962,
  "enizde": 14194,
  "enizdeki": 32858,
  "enizden": 40119,
  "enize": 7469,
  "enizi": 5131,
  "enizin": 15488,
  "enizle": 46693,
  "enjit": 47542,
  "enk": 1362,
  "enko": 24535,
  "enkul": 5429,
  "enkÃ¶y": 36994,
  "enler": 3143,
  "enlere": 48061,
  "enleri": 10381,
  "enlerin": 11045,
  "enli": 16312,
  "enmiÅŁ": 42806,
  "enn": 6591,
  "enne": 43251,
  "enni": 16781,
  "enos": 49754,
  "ens": 9465,
  "ense": 40345,
  "ensiz": 33190,
  "ent": 1349,
  "enta": 38784,
  "ental": 25855,
  "entbol": 25935,
  "ente": 22335,
  "enter": 9593,
  "entetik": 45722,
  "entez": 40997,
  "enti": 41168,
  "entin": 37257,
  "ento": 14647,
  "ents": 19734,
  "enz": 44499,
  "enza": 47445,
  "enÃ§": 15205,
  "enÃ¼z": 3060,
  "eo": 22385,
  "ep": 600,
  "epe": 10734,
  "eper": 44346,
  "epsi": 28557,
  "epsiyon": 44301,
  "eptik": 39758,
  "epyeni": 11946,
  "er": 258,
  "era": 6221,
  "eral": 6272,
  "erasyon": 2096,
  "eratÃ¶r": 26738,
  "ere": 2133,
  "ereira": 41589,
  "erek": 722,
  "eren": 32061,
  "ereum": 42311,
  "erez": 6137,
  "erg": 10703,
  "ergah": 13737,
  "erge": 43327,
  "ergy": 37488,
  "ergÃ¢h": 32175,
  "eri": 671,
  "eria": 36308,
  "erial": 46584,
  "eride": 21434,
  "erik": 11482,
  "erim": 29376,
  "erin": 11850,
  "ering": 40811,
  "erj": 1742,
  "erji": 5602,
  "erk": 734,
  "erkan": 12222,
  "erkek": 25642,
  "erken": 3743,
  "erkes": 21483,
  "erkez": 1009,
  "erkÃ¼k": 24729,
  "erler": 2931,
  "erleri": 11294,
  "erli": 1695,
  "erlik": 47398,
  "ern": 1847,
  "ero": 17500,
  "eron": 13931,
  "err": 24067,
  "errah": 5992,
  "ers": 640,
  "ersburg": 34061,
  "erse": 48714,
  "ersek": 11048,
  "ersem": 20651,
  "ersen": 13234,
  "erseniz": 4404,
  "ersey": 32648,
  "ersin": 4378,
  "ersiniz": 7808,
  "ersiz": 2891,
  "erson": 2303,
  "ersonel": 32651,
  "ert": 4471,
  "erto": 40042,
  "ertu": 44461,
  "erv": 4069,
  "ervans": 47410,
  "erve": 34600,
  "ery": 20424,
  "eryal": 7983,
  "erÃ§": 1958,
  "erÃ§ev": 3224,
  "es": 296,
  "esa": 39196,
  "esan": 20258,
  "esans": 27132,
  "escu": 48238,
  "ese": 4405,
  "esef": 5241,
  "esek": 28509,
  "esel": 2010,
  "esela": 7577,
  "eseler": 41702,
  "eseli": 37698,
  "esem": 25370,
  "esen": 39139,
  "eseniz": 44775,
  "eser": 39418,
  "eseydi": 49802,
  "esh": 44639,
  "esi": 389,
  "esidir": 9891,
  "esif": 27478,
  "esifik": 20902,
  "esign": 18448,
  "esih": 15371,
  "esim": 42896,
  "esin": 1056,
  "esince": 8796,
  "esinde": 755,
  "esindeki": 3752,
  "esinden": 2071,
  "esine": 938,
  "esini": 988,
  "esinin": 1229,
  "esiniz": 15176,
  "esinler": 25652,
  "esir": 7286,
  "esis": 34761,
  "esiydi": 22042,
  "esiye": 37949,
  "esiyle": 2219,
  "esiz": 3645,
  "esizlik": 49463,
  "esk": 13634,
  "eski": 22753,
  "esma": 43036,
  "esp": 40786,
  "espe": 39054,
  "espeare": 41128,
  "espor": 6966,
  "ess": 3522,
  "essary": 34286,
  "est": 669,
  "estalt": 39033,
  "estan": 39064,
  "este": 19940,
  "estel": 19353,
  "esten": 13325,
  "ester": 6671,
  "esterol": 16318,
  "esti": 47640,
  "estiv": 4369,
  "esto": 24563,
  "estone": 49758,
  "estor": 4280,
  "esun": 8706,
  "et": 284,
  "eta": 30804,
  "etay": 2120,
  "ete": 3267,
  "eten": 8017,
  "eter": 5857,
  "eteriner": 14797,
  "eth": 6335,
  "ethe": 42336,
  "ether": 33340,
  "eti": 1343,
  "etice": 15833,
  "etik": 3097,
  "etilen": 48501,
  "etim": 839,
  "etime": 42926,
  "etin": 2369,
  "etini": 44567,
  "etir": 859,
  "etiyle": 5844,
  "etiÄŁi": 17695,
  "etk": 14012,
  "etle": 7463,
  "etler": 2518,
  "etleri": 4258,
  "etli": 10941,
  "etmek": 34178,
  "etmen": 2072,
  "etmenin": 47039,
  "eto": 28029,
  "eton": 45229,
  "etooth": 15620,
  "etr": 3026,
  "etre": 26043,
  "etri": 46787,
  "etrik": 35664,
  "etrol": 4902,
  "ets": 29734,
  "ett": 33425,
  "etta": 49346,
  "ette": 7087,
  "etteb": 29220,
  "etten": 46954,
  "ettepe": 23521,
  "etti": 21610,
  "ettin": 15534,
  "ettÃ¼": 27894,
  "ettÃ¼r": 15200,
  "ety": 27009,
  "eum": 34937,
  "eur": 40778,
  "ev": 375,
  "eva": 28705,
  "evde": 46330,
  "eve": 15095,
  "even": 22452,
  "ever": 5355,
  "everler": 46328,
  "eves": 43427,
  "evet": 14069,
  "eveyn": 9155,
  "evher": 20543,
  "evi": 2605,
  "eview": 20667,
  "evim": 47051,
  "evin": 25778,
  "evinde": 31299,
  "evine": 35995,
  "evious": 23141,
  "evir": 35374,
  "evit": 21642,
  "eviz": 33015,
  "evizyon": 3802,
  "evk": 4990,
  "evler": 13841,
  "evleri": 25748,
  "evre": 18084,
  "evser": 45523,
  "evski": 42354,
  "evver": 44478,
  "evÃ®": 13967,
  "ew": 11251,
  "ex": 8729,
  "exe": 37710,
  "express": 33136,
  "ey": 338,
  "eya": 14359,
  "eyan": 26708,
  "eydi": 6649,
  "eydim": 38602,
  "eye": 622,
  "eyebilir": 41413,
  "eyecek": 11185,
  "eyecektir": 23158,
  "eyeceÄŁi": 30535,
  "eyeceÄŁini": 32999,
  "eyelim": 48444,
  "eyen": 1079,
  "eyerek": 10944,
  "eyf": 41114,
  "eygam": 3934,
  "eygamber": 4066,
  "eygamberi": 41714,
  "eyh": 5959,
  "eyhan": 47661,
  "eyhun": 40136,
  "eyi": 837,
  "eyici": 27781,
  "eyim": 2049,
  "eyin": 1653,
  "eyince": 11126,
  "eyip": 22029,
  "eyiz": 4778,
  "eyken": 21775,
  "eyl": 20162,
  "eyla": 42662,
  "eylan": 36334,
  "eyle": 3574,
  "eyler": 40436,
  "eymiÅŁ": 44847,
  "eyn": 3153,
  "eynep": 30858,
  "eyner": 46024,
  "eyni": 40386,
  "eyr": 49277,
  "eyrek": 27094,
  "eyse": 7349,
  "eysel": 9403,
  "eyt": 8606,
  "eytin": 4689,
  "eyting": 20978,
  "eyya": 28833,
  "eyz": 13522,
  "eyzaj": 20565,
  "eyÅŁ": 40227,
  "ez": 457,
  "eza": 12821,
  "eze": 20969,
  "ezerv": 14975,
  "ezi": 4306,
  "ezid": 29542,
  "ezidans": 42073,
  "ezik": 15313,
  "ezikler": 47121,
  "ezir": 22799,
  "ezite": 34169,
  "ezlek": 49003,
  "ezlong": 45462,
  "ezon": 2231,
  "ezya": 13203,
  "ezz": 14886,
  "ezzet": 22910,
  "ezzin": 32931,
  "eÃ§": 441,
  "eÃ§en": 32948,
  "eÃ§h": 15649,
  "eÃ§hiz": 23276,
  "eÃ§hul": 29445,
  "eÃ§i": 38090,
  "eÄŁ": 421,
  "eÄŁe": 4415,
  "eÄŁen": 3035,
  "eÄŁer": 13882,
  "eÄŁi": 1117,
  "eÄŁim": 16807,
  "eÄŁimi": 44421,
  "eÄŁimiz": 16467,
  "eÄŁimizi": 27020,
  "eÄŁimizin": 38135,
  "eÄŁin": 1859,
  "eÄŁince": 12747,
  "eÄŁinde": 7568,
  "eÄŁindeki": 46177,
  "eÄŁinden": 11052,
  "eÄŁine": 6086,
  "eÄŁini": 4198,
  "eÄŁinin": 7597,
  "eÄŁiniz": 16335,
  "eÄŁinize": 22777,
  "eÄŁinizi": 24739,
  "eÄŁinizin": 26832,
  "eÄŁir": 36003,
  "eÄŁitim": 32071,
  "eÄŁiyle": 7490,
  "eÄŁli": 15280,
  "eÄŁmen": 24799,
  "eÅŁ": 471,
  "eÅŁe": 17721,
  "eÅŁehir": 25329,
  "eÅŁem": 5615,
  "eÅŁik": 3511,
  "eÅŁiktaÅŁ": 3920,
  "eÅŁil": 2808,
  "eÅŁim": 14789,
  "eÅŁit": 1436,
  "eÅŁitli": 24372,
  "eÅŁme": 7287,
  "eÅŁte": 28090,
  "eÅŁtir": 2415,
  "f": 70,
  "fa": 1220,
  "faa": 31495,
  "fab": 16934,
  "face": 33455,
  "facebook": 29841,
  "faf": 8808,
  "faiye": 9919,
  "fak": 3072,
  "fakat": 43633,
  "fal": 34323,
  "falt": 12611,
  "fan": 11006,
  "far": 29175,
  "fark": 29782,
  "farklÄ±": 48608,
  "fast": 44250,
  "fat": 6495,
  "faz": 22135,
  "fd": 49179,
  "fe": 10768,
  "fect": 28659,
  "fed": 21504,
  "fel": 25583,
  "fen": 2824,
  "fend": 43024,
  "fendi": 8444,
  "fer": 1879,
  "ferans": 6532,
  "feransta": 34378,
  "feransÄ±": 15336,
  "feri": 9384,
  "fes": 2531,
  "fesyonel": 3226,
  "fesÃ¶r": 12535,
  "fet": 4142,
  "fett": 31709,
  "fettin": 46619,
  "fettiÅŁ": 20856,
  "fez": 11894,
  "fezi": 23630,
  "ff": 9984,
  "fi": 3169,
  "fic": 48262,
  "fica": 47548,
  "fice": 13064,
  "fie": 30618,
  "field": 20339,
  "fig": 30824,
  "fik": 6340,
  "fikir": 34377,
  "fil": 5377,
  "file": 42082,
  "film": 22304,
  "fin": 14325,
  "fir": 14105,
  "fit": 31478,
  "fix": 36739,
  "fiyat": 28551,
  "fiye": 14167,
  "fizer": 44365,
  "fke": 26642,
  "fl": 27776,
  "fle": 45339,
  "fli": 10135,
  "flight": 42148,
  "flix": 12411,
  "fo": 15786,
  "fol": 33469,
  "fon": 11257,
  "fone": 11298,
  "foni": 41460,
  "food": 46021,
  "for": 1881,
  "ford": 12689,
  "form": 2016,
  "forma": 26452,
  "forman": 2755,
  "formance": 44560,
  "formans": 2959,
  "formasyon": 18790,
  "formation": 23660,
  "forme": 42935,
  "fort": 33532,
  "forum": 32925,
  "fotoÄŁraf": 44261,
  "fr": 33652,
  "fred": 15249,
  "ft": 6646,
  "fte": 14613,
  "fu": 33458,
  "fuk": 20807,
  "ful": 29222,
  "fun": 23921,
  "function": 49268,
  "fur": 28555,
  "furt": 18694,
  "fuz": 25767,
  "fÃ®": 48553,
  "fÃ¶y": 8309,
  "fÃ¼": 23370,
  "fÃ¼m": 14081,
  "fÃ¼r": 42920,
  "fÄ": 5040,
  "fÄ±": 5046,
  "fÄ±r": 30393,
  "g": 71,
  "ga": 2773,
  "gage": 48893,
  "gah": 6255,
  "gal": 4009,
  "gam": 3435,
  "gan": 1422,
  "gani": 48051,
  "ganlÄ±k": 41819,
  "ganÄ±n": 28273,
  "gar": 3367,
  "gara": 16585,
  "garenk": 26647,
  "gari": 6548,
  "gart": 36081,
  "gas": 29971,
  "gasÄ±": 45843,
  "gat": 6392,
  "gate": 17553,
  "gay": 17509,
  "gaz": 6467,
  "gazet": 24731,
  "gazi": 9280,
  "gaÃ§": 36252,
  "gb": 34568,
  "ge": 1313,
  "geb": 47800,
  "gec": 24900,
  "gece": 43600,
  "ged": 19420,
  "gede": 36436,
  "gel": 1302,
  "geldin": 18507,
  "geldiniz": 23803,
  "gele": 11239,
  "gelen": 11679,
  "geler": 22955,
  "geleri": 30712,
  "geliÅŁ": 47288,
  "gen": 3058,
  "gence": 49609,
  "gene": 39532,
  "genel": 22871,
  "general": 14448,
  "geni": 39995,
  "genin": 29787,
  "geniÅŁ": 49483,
  "genÃ§": 33268,
  "ger": 4038,
  "gerek": 26381,
  "geri": 30033,
  "gers": 34679,
  "gerÃ§": 18226,
  "gerÃ§ek": 24065,
  "gerÃ§ekten": 50018,
  "ges": 18248,
  "gesel": 38166,
  "gesi": 3218,
  "get": 14071,
  "gez": 27435,
  "geÃ§": 3205,
  "geÃ§miÅŁ": 18641,
  "gg": 29532,
  "ght": 30362,
  "gi": 635,
  "gia": 29153,
  "gibi": 28947,
  "gide": 23545,
  "gie": 31623,
  "gies": 39679,
  "gil": 1380,
  "gile": 40623,
  "giler": 5146,
  "gili": 3597,
  "giller": 27225,
  "gim": 16204,
  "gimiz": 49111,
  "gin": 1526,
  "gina": 39421,
  "ging": 25790,
  "gini": 14496,
  "ginia": 42377,
  "ginin": 24099,
  "giniz": 36424,
  "ginizi": 23144,
  "ginÃ§": 18632,
  "gio": 38409,
  "gion": 32712,
  "gir": 12082,
  "girt": 35922,
  "gis": 36894,
  "gisi": 2775,
  "git": 20433,
  "giz": 31513,
  "gk": 39470,
  "gl": 45695,
  "gle": 35671,
  "gmail": 29784,
  "gn": 11437,
  "go": 2843,
  "gog": 46804,
  "gol": 36538,
  "gon": 13844,
  "google": 29960,
  "gor": 19076,
  "gov": 12784,
  "gr": 3577,
  "grad": 21772,
  "graf": 11715,
  "gram": 1112,
  "grama": 12254,
  "gre": 5024,
  "gren": 43373,
  "gresi": 9143,
  "gresif": 22046,
  "ground": 18164,
  "grup": 28931,
  "gs": 14982,
  "gu": 1760,
  "guage": 37229,
  "guay": 36186,
  "gul": 1479,
  "gulama": 21689,
  "gular": 35531,
  "gum": 42291,
  "gun": 2540,
  "guna": 49993,
  "gunluk": 20021,
  "gunu": 33286,
  "gur": 8495,
  "gus": 40149,
  "gusal": 18862,
  "gusu": 13612,
  "gut": 8986,
  "gy": 39301,
  "gÃ¢h": 15659,
  "gÃ¶": 22153,
  "gÃ¶l": 14200,
  "gÃ¶nder": 49252,
  "gÃ¶nÃ¼l": 36181,
  "gÃ¶r": 3155,
  "gÃ¶ren": 39289,
  "gÃ¶rÃ¼": 42599,
  "gÃ¶ster": 40445,
  "gÃ¶z": 9298,
  "gÃ¼": 4355,
  "gÃ¼cÃ¼": 17138,
  "gÃ¼l": 7333,
  "gÃ¼lÃ¼": 31863,
  "gÃ¼mrÃ¼k": 36913,
  "gÃ¼n": 1059,
  "gÃ¼nde": 29342,
  "gÃ¼nÃ¼": 23182,
  "gÃ¼p": 44338,
  "gÃ¼r": 2624,
  "gÃ¼t": 7204,
  "gÃ¼tÃ¼n": 36088,
  "gÃ¼ven": 11918,
  "gÃ¼zel": 20076,
  "gÃ¼Ã§": 27585,
  "gÄ": 1480,
  "gÄ±": 1482,
  "gÄ±c": 13711,
  "gÄ±cÄ±": 15330,
  "gÄ±lar": 30998,
  "gÄ±lÄ±": 29349,
  "gÄ±m": 38729,
  "gÄ±n": 1703,
  "gÄ±na": 48774,
  "gÄ±nlÄ±k": 31186,
  "gÄ±nÄ±": 36393,
  "gÄ±nÄ±n": 32394,
  "gÄ±r": 29154,
  "gÄ±sÄ±": 48887,
  "gÄ±t": 44361,
  "gÄ±z": 18548,
  "gÄ±Ã§": 4052,
  "h": 72,
  "ha": 2783,
  "hab": 10455,
  "haba": 5282,
  "habalar": 14951,
  "haber": 8406,
  "haberler": 44790,
  "hac": 48566,
  "hack": 49544,
  "had": 39659,
  "hael": 12919,
  "haf": 15331,
  "hafta": 49953,
  "hai": 31757,
  "hain": 44060,
  "hak": 10222,
  "hakk": 46289,
  "hal": 1334,
  "halde": 9832,
  "hale": 11372,
  "halef": 21344,
  "halefet": 27835,
  "halif": 37976,
  "halk": 37435,
  "hall": 32871,
  "hallen": 35402,
  "hallenge": 45708,
  "ham": 2534,
  "han": 874,
  "hana": 46688,
  "handa": 45236,
  "hane": 4483,
  "hanede": 37369,
  "haneler": 41292,
  "hanesi": 20982,
  "haneye": 44276,
  "hang": 27827,
  "hangi": 1689,
  "hani": 48290,
  "har": 2436,
  "hard": 15821,
  "hare": 15507,
  "hareket": 49464,
  "has": 5808,
  "haseki": 38650,
  "hassa": 14957,
  "hast": 44957,
  "hasÄ±l": 46442,
  "hat": 2226,
  "hats": 6750,
  "hatsApp": 10025,
  "hatsapp": 13151,
  "hatta": 38725,
  "hav": 29801,
  "hava": 30640,
  "hay": 8815,
  "hayat": 29471,
  "hayÄ±r": 21444,
  "haz": 25423,
  "hazÄ±r": 49451,
  "haÅŁ": 37088,
  "he": 1249,
  "head": 44641,
  "hed": 47289,
  "heim": 28669,
  "heimer": 22601,
  "hekim": 28237,
  "hekimi": 42394,
  "hel": 16994,
  "hem": 10873,
  "hen": 11355,
  "hend": 3567,
  "hendis": 4097,
  "hendisi": 13896,
  "hep": 11771,
  "her": 3296,
  "here": 11743,
  "hereum": 15042,
  "heri": 41001,
  "herine": 48278,
  "hernet": 39765,
  "hes": 27531,
  "hesap": 49891,
  "het": 37162,
  "hh": 23498,
  "hha": 36064,
  "hi": 3662,
  "hib": 30528,
  "hic": 32483,
  "hid": 9740,
  "hidrat": 15360,
  "hie": 30546,
  "hik": 49095,
  "hil": 17080,
  "hile": 40038,
  "him": 44282,
  "hin": 29055,
  "hing": 38338,
  "hion": 28037,
  "hip": 19122,
  "hir": 23306,
  "his": 3867,
  "hisar": 10985,
  "hit": 40169,
  "hiz": 43977,
  "hizmet": 24864,
  "hiÃ§": 25114,
  "hiÅŁ": 9547,
  "hlam": 36168,
  "hlamur": 41789,
  "hn": 29686,
  "ho": 5554,
  "hocam": 44966,
  "hod": 26178,
  "hol": 18651,
  "holm": 31552,
  "home": 46226,
  "hon": 37186,
  "hone": 4262,
  "hop": 22192,
  "hor": 17367,
  "hos": 40640,
  "host": 42246,
  "hot": 33904,
  "hotmail": 46102,
  "hou": 35309,
  "house": 27669,
  "hoven": 43913,
  "hoÅŁ": 19673,
  "hp": 34640,
  "hr": 38380,
  "hret": 20483,
  "ht": 811,
  "htm": 42860,
  "html": 12882,
  "http": 8268,
  "https": 7861,
  "hu": 23763,
  "hukuk": 39923,
  "hum": 14521,
  "hun": 27892,
  "hur": 1235,
  "hurch": 40334,
  "hus": 44734,
  "hy": 10835,
  "hz": 39464,
  "hÃ¼r": 44443,
  "hÄ±z": 40877,
  "i": 73,
  "iOS": 40285,
  "iP": 16380,
  "iPhone": 20130,
  "ia": 3004,
  "ian": 13530,
  "iaomi": 14289,
  "ib": 476,
  "iba": 13092,
  "ibal": 45678,
  "iban": 17410,
  "ibar": 20961,
  "ibe": 6417,
  "ibel": 44822,
  "iber": 3945,
  "ibet": 17279,
  "ibi": 535,
  "ibil": 14239,
  "ibildirim": 23454,
  "ibilite": 45968,
  "ibin": 26385,
  "ibini": 26745,
  "ibir": 27837,
  "ible": 28232,
  "ibo": 44043,
  "ibolu": 32019,
  "ibon": 24964,
  "ibonacci": 28312,
  "ibot": 28921,
  "ibr": 17541,
  "ibu": 22541,
  "ic": 537,
  "ica": 5776,
  "ical": 9930,
  "ican": 17228,
  "icaret": 1649,
  "icari": 4200,
  "icdan": 9010,
  "ice": 5927,
  "icek": 23871,
  "icem": 36992,
  "ices": 20900,
  "ich": 6373,
  "ici": 1099,
  "icial": 45756,
  "icik": 23867,
  "icil": 12864,
  "iciler": 4589,
  "icilere": 24442,
  "icileri": 10376,
  "icilerin": 12972,
  "icilerinin": 48434,
  "icilik": 17887,
  "iciliÄŁi": 18782,
  "icinin": 14996,
  "icisi": 9612,
  "iciydi": 37931,
  "iciye": 27707,
  "iciyi": 38092,
  "ick": 5852,
  "icks": 48844,
  "icle": 20684,
  "ico": 13494,
  "icon": 43099,
  "icron": 45597,
  "ics": 11167,
  "ictor": 19572,
  "id": 624,
  "ida": 13490,
  "idal": 47238,
  "idar": 30750,
  "idd": 12398,
  "iddet": 3074,
  "iddeti": 16728,
  "iddi": 20266,
  "iddle": 47458,
  "ide": 1047,
  "ideki": 10070,
  "idel": 43713,
  "idem": 21168,
  "iden": 2822,
  "ideo": 2375,
  "ider": 6772,
  "ides": 24459,
  "idesi": 27672,
  "idge": 19925,
  "idget": 37200,
  "idi": 3771,
  "idia": 36130,
  "idik": 26200,
  "idim": 20613,
  "idin": 10893,
  "idir": 11392,
  "idiy": 40197,
  "idiyekÃ¶y": 43118,
  "ido": 24199,
  "idor": 12260,
  "ids": 31581,
  "idth": 21451,
  "idun": 42177,
  "idy": 35339,
  "idye": 22070,
  "ie": 4363,
  "iel": 34517,
  "ier": 10193,
  "ies": 9511,
  "iet": 12588,
  "ietnam": 21197,
  "ietz": 44069,
  "ietzsche": 47167,
  "iew": 12517,
  "iews": 17812,
  "if": 661,
  "ifa": 21519,
  "ife": 6240,
  "ifer": 16352,
  "iff": 43590,
  "ifi": 13087,
  "ific": 27086,
  "ifik": 20098,
  "ifiye": 29202,
  "ifli": 22999,
  "ifon": 38726,
  "ifor": 18452,
  "iform": 50088,
  "iforn": 26339,
  "ifornia": 29794,
  "iforniya": 27376,
  "ifre": 22822,
  "ift": 2044,
  "ify": 36107,
  "ig": 983,
  "iga": 28284,
  "igan": 38257,
  "igen": 31425,
  "iger": 17658,
  "igh": 13526,
  "ight": 6064,
  "ights": 27306,
  "igi": 44384,
  "igin": 37501,
  "igit": 6123,
  "igital": 19994,
  "igiturk": 7078,
  "igitÃ¼rk": 23925,
  "igment": 29079,
  "ign": 7760,
  "igo": 24652,
  "igÃ¼r": 10637,
  "ih": 534,
  "iha": 13679,
  "ihaber": 44591,
  "ihan": 18510,
  "ihat": 22584,
  "ihazÄ±rda": 18155,
  "ihi": 36091,
  "ihisar": 26741,
  "ii": 2561,
  "iii": 38160,
  "iir": 3338,
  "iirt": 12792,
  "ij": 2034,
  "ijder": 41775,
  "ijer": 20680,
  "ijinal": 7428,
  "ijital": 3228,
  "ijyen": 9449,
  "ik": 306,
  "ika": 1004,
  "ikal": 8234,
  "ikar": 13978,
  "ikasyon": 23891,
  "ikat": 5412,
  "ikaten": 50184,
  "ikatÃ¼r": 15493,
  "ikayet": 3396,
  "ike": 10587,
  "iker": 38696,
  "iki": 5183,
  "ikin": 45963,
  "ikinci": 37969,
  "ikip": 16650,
  "ikipedi": 28712,
  "ikipedia": 28540,
  "ikistan": 49416,
  "ikler": 9965,
  "ikleri": 18055,
  "iklet": 3967,
  "ikli": 15989,
  "iklik": 24790,
  "iko": 29029,
  "ikol": 7662,
  "ikolat": 40028,
  "ikolata": 28845,
  "iksel": 26235,
  "ikÃ¢r": 44594,
  "ikÃ¼r": 44782,
  "il": 268,
  "ila": 13051,
  "ilaf": 40709,
  "ilan": 20850,
  "ilar": 21472,
  "ilasyon": 15367,
  "ilat": 16451,
  "ilay": 26866,
  "ild": 9927,
  "ilde": 15321,
  "ildi": 744,
  "ildikten": 16170,
  "ildim": 47107,
  "ildir": 33452,
  "ildiÄŁ": 2591,
  "ildiÄŁi": 2910,
  "ildiÄŁim": 30326,
  "ildiÄŁimiz": 27212,
  "ildiÄŁinde": 8490,
  "ildiÄŁinden": 30967,
  "ildiÄŁine": 24928,
  "ildiÄŁini": 5276,
  "ildiÄŁinin": 47760,
  "ildiÄŁiniz": 17412,
  "ildren": 44509,
  "ile": 1607,
  "ilebilecek": 14207,
  "ilebileceÄŁi": 35901,
  "ilebileceÄŁini": 38612,
  "ilebilen": 23736,
  "ilebilir": 3557,
  "ilebiliyor": 24781,
  "ilebilmektedir": 26940,
  "ilebilmesi": 23934,
  "ilecek": 1348,
  "ilecektir": 9231,
  "ileceÄŁi": 14434,
  "ileceÄŁine": 29538,
  "ileceÄŁini": 17870,
  "ilemeyen": 28745,
  "ilemez": 12798,
  "ilen": 591,
  "ilendir": 3054,
  "ilendirme": 16904,
  "ilenen": 43188,
  "ilenin": 20480,
  "ilenler": 38363,
  "iler": 405,
  "ilerde": 7310,
  "ilerden": 5780,
  "ilere": 1614,
  "ilerek": 2850,
  "ileri": 846,
  "ilerim": 30874,
  "ilerimiz": 11915,
  "ilerimize": 21549,
  "ilerimizi": 30825,
  "ilerimizin": 18462,
  "ilerin": 1102,
  "ilerince": 42842,
  "ilerinde": 10744,
  "ilerinden": 7160,
  "ilerine": 2138,
  "ilerini": 2005,
  "ilerinin": 2514,
  "ileriyle": 11258,
  "ilerle": 7728,
  "ilet": 17708,
  "ileÅŁ": 19830,
  "ileÅŁme": 29281,
  "ileÅŁtir": 21158,
  "ili": 596,
  "ilia": 42310,
  "ilifke": 40452,
  "ilik": 994,
  "ilikle": 28152,
  "ilikon": 13949,
  "ililer": 23222,
  "ilim": 3593,
  "ilimi": 39738,
  "ilin": 18131,
  "ilince": 19874,
  "ilip": 6116,
  "ilir": 427,
  "ilirken": 9078,
  "ilirse": 20157,
  "ilit": 42787,
  "iliv": 15823,
  "ilivri": 17145,
  "iliyor": 1588,
  "iliyordu": 21353,
  "iliyorsunuz": 40258,
  "iliÄŁ": 2349,
  "iliÄŁe": 12444,
  "iliÄŁi": 2621,
  "iliÄŁin": 10545,
  "iliÄŁinde": 29310,
  "iliÄŁinden": 11070,
  "iliÄŁine": 18175,
  "iliÄŁini": 14309,
  "iliÄŁinin": 18958,
  "iliÅŁ": 16434,
  "ilk": 14159,
  "ill": 4576,
  "illa": 5957,
  "illah": 37773,
  "ille": 15420,
  "iller": 8153,
  "illeri": 47411,
  "illi": 4102,
  "illiam": 13583,
  "illo": 47790,
  "ilm": 459,
  "ilmaz": 45076,
  "ilme": 6059,
  "ilmeden": 15077,
  "ilmedi": 27609,
  "ilmediÄŁi": 25519,
  "ilmediÄŁini": 44479,
  "ilmek": 4894,
  "ilmekte": 16739,
  "ilmektedir": 4451,
  "ilmeleri": 31267,
  "ilmeli": 11734,
  "ilmelidir": 7719,
  "ilmem": 17481,
  "ilmemelidir": 43160,
  "ilmemesi": 19598,
  "ilmemiÅŁ": 17666,
  "ilmemiÅŁtir": 39402,
  "ilmen": 31323,
  "ilmesi": 1088,
  "ilmesinde": 13455,
  "ilmesinden": 19688,
  "ilmesine": 6689,
  "ilmesini": 6246,
  "ilmesinin": 11054,
  "ilmesiyle": 16520,
  "ilmeye": 10200,
  "ilmeyecek": 39390,
  "ilmeyen": 16196,
  "ilmeyi": 35241,
  "ilmez": 5810,
  "ilmezi": 28400,
  "ilmi": 15707,
  "ilmis": 36060,
  "ilmiyor": 22528,
  "ilmiÅŁ": 1758,
  "ilmiÅŁti": 8881,
  "ilmiÅŁtir": 3527,
  "ilse": 25876,
  "ilsin": 33231,
  "ilt": 7461,
  "ily": 20778,
  "ilya": 8764,
  "ilyalÄ±": 24711,
  "ilyon": 12604,
  "im": 303,
  "ima": 5890,
  "images": 47349,
  "imahalle": 28351,
  "imal": 12446,
  "iman": 30435,
  "imar": 4473,
  "imarka": 15866,
  "imasyon": 12828,
  "imda": 49336,
  "imde": 2193,
  "imdeki": 20219,
  "imden": 6594,
  "imdi": 1591,
  "imdir": 31213,
  "ime": 2241,
  "imer": 13739,
  "imet": 9546,
  "imetre": 46599,
  "imetrik": 40242,
  "img": 27013,
  "imi": 716,
  "imin": 3389,
  "imini": 8412,
  "imiz": 532,
  "imizde": 3002,
  "imizdeki": 12752,
  "imizden": 5304,
  "imizdir": 22478,
  "imize": 2172,
  "imizi": 2057,
  "imizin": 2003,
  "imizle": 7642,
  "imle": 7524,
  "imler": 3104,
  "imleri": 2823,
  "imlerinizi": 28514,
  "imli": 2993,
  "immet": 34150,
  "imsi": 49552,
  "imum": 7111,
  "in": 261,
  "ina": 3102,
  "inal": 3811,
  "inan": 45676,
  "inasyon": 23429,
  "inat": 31433,
  "inc": 2495,
  "incan": 11193,
  "ince": 2098,
  "inceye": 17738,
  "inci": 2345,
  "incir": 38920,
  "incisi": 14016,
  "incoln": 46231,
  "ind": 2444,
  "inda": 10108,
  "indan": 13033,
  "inde": 394,
  "indedir": 12244,
  "indek": 19201,
  "indeki": 1542,
  "indekiler": 26938,
  "indeler": 47632,
  "inden": 632,
  "index": 21817,
  "indi": 19289,
  "indir": 18488,
  "indistan": 6435,
  "indow": 29437,
  "indows": 4563,
  "ine": 376,
  "inebilir": 45766,
  "inecek": 24742,
  "inek": 23137,
  "inen": 29401,
  "iner": 8873,
  "iness": 16713,
  "inez": 49037,
  "inf": 38122,
  "info": 27103,
  "ing": 1090,
  "ingale": 38943,
  "inge": 39672,
  "ingen": 25731,
  "inger": 26360,
  "ingi": 31095,
  "ingil": 42249,
  "ingin": 31722,
  "ingir": 18291,
  "ingle": 22554,
  "ingo": 32626,
  "ings": 15742,
  "ington": 10010,
  "ingÃ¶l": 11729,
  "inho": 34124,
  "ini": 366,
  "inik": 47249,
  "inin": 431,
  "ining": 22664,
  "ininin": 27560,
  "inip": 17826,
  "inir": 39640,
  "iniz": 452,
  "inizde": 2983,
  "inizdeki": 13760,
  "inizden": 8536,
  "inize": 2058,
  "inizi": 1222,
  "inizin": 2923,
  "inizle": 9512,
  "inizm": 38499,
  "ink": 3531,
  "inko": 23289,
  "inle": 37705,
  "inler": 12004,
  "inli": 40563,
  "inn": 29645,
  "ino": 7540,
  "inos": 48266,
  "ins": 15880,
  "insan": 13164,
  "insel": 6754,
  "inson": 27285,
  "inst": 36322,
  "instagram": 35334,
  "int": 6243,
  "inter": 12076,
  "interest": 16896,
  "internet": 34336,
  "intili": 45860,
  "inÃ§": 2974,
  "inÃ§ek": 36770,
  "inÅŁ": 43465,
  "io": 8588,
  "ion": 8083,
  "ions": 34387,
  "ip": 467,
  "ipar": 3254,
  "ipariÅŁ": 3635,
  "ipaÅŁa": 33463,
  "ipe": 28373,
  "iper": 12172,
  "ipler": 24778,
  "iplin": 7583,
  "ipol": 24996,
  "ipp": 12378,
  "ipping": 35464,
  "ipple": 23504,
  "ips": 27537,
  "ipt": 25586,
  "ipto": 3774,
  "ipzig": 47592,
  "ir": 267,
  "ira": 2464,
  "iral": 11478,
  "iran": 2170,
  "iranÅŁehir": 46595,
  "ird": 42785,
  "irdaÄŁ": 9558,
  "irdi": 21834,
  "irdir": 37154,
  "ire": 4722,
  "ireless": 48549,
  "iren": 32680,
  "iret": 12275,
  "iri": 2700,
  "irim": 6792,
  "irin": 7987,
  "irit": 32460,
  "iriz": 9640,
  "irk": 23508,
  "irken": 4733,
  "irket": 1176,
  "irkin": 12620,
  "irler": 5448,
  "irleri": 11344,
  "irli": 6442,
  "irlik": 22594,
  "irm": 24831,
  "irme": 25622,
  "irmen": 14204,
  "irmi": 9501,
  "irmin": 48545,
  "irminci": 49176,
  "iro": 22105,
  "irse": 11183,
  "irseniz": 30075,
  "irsiniz": 19272,
  "irt": 8031,
  "irÃ¼s": 2728,
  "is": 322,
  "isa": 4903,
  "isan": 2150,
  "isar": 22562,
  "isas": 21644,
  "isay": 2213,
  "isayar": 2368,
  "isco": 47517,
  "ise": 3525,
  "isel": 2282,
  "isen": 38408,
  "iser": 19345,
  "ish": 7402,
  "ishi": 34406,
  "isi": 558,
  "isidir": 34963,
  "isiklet": 5285,
  "isim": 11608,
  "isin": 6677,
  "isinde": 1219,
  "isindeki": 7476,
  "isinden": 4186,
  "isine": 1628,
  "isini": 1547,
  "isinin": 1841,
  "isiniz": 4307,
  "ision": 17400,
  "isit": 41977,
  "isiyat": 21053,
  "isiydi": 28763,
  "isiyim": 31481,
  "isiyle": 4461,
  "isiz": 6470,
  "isk": 1856,
  "iskele": 47853,
  "iskop": 32429,
  "iskopos": 45352,
  "islam": 31846,
  "isli": 26827,
  "ism": 18585,
  "ismail": 30731,
  "ismailoÄŁlu": 36724,
  "ison": 23677,
  "ispor": 12707,
  "iss": 18788,
  "isse": 28437,
  "ist": 599,
  "ista": 35117,
  "istal": 13500,
  "istan": 1489,
  "istanbul": 18955,
  "istanÄ±": 46614,
  "iste": 22394,
  "isteki": 46159,
  "istem": 901,
  "isten": 14564,
  "ister": 21980,
  "isti": 9258,
  "istik": 3330,
  "istike": 47535,
  "istim": 31950,
  "istimal": 37646,
  "istin": 5636,
  "istir": 18019,
  "istiyan": 12207,
  "istler": 9529,
  "istleri": 25454,
  "istlerin": 16848,
  "istr": 36681,
  "isy": 13929,
  "isyen": 6054,
  "isyeni": 31600,
  "isyenler": 18259,
  "isyon": 1723,
  "it": 333,
  "ita": 9455,
  "itab": 10639,
  "itaban": 24272,
  "itabanÄ±": 22997,
  "ital": 2326,
  "itan": 10921,
  "itap": 3047,
  "itasyon": 9417,
  "itch": 39417,
  "ite": 1960,
  "ited": 11008,
  "iteli": 11056,
  "itenin": 22715,
  "iter": 4630,
  "iteratÃ¼r": 16928,
  "ites": 29913,
  "itesi": 5954,
  "itesini": 44840,
  "iteye": 35413,
  "iteyi": 45517,
  "ith": 6212,
  "iti": 5679,
  "ities": 22764,
  "itif": 6031,
  "itik": 1801,
  "itika": 6837,
  "itim": 964,
  "itimi": 47245,
  "itin": 26375,
  "ition": 16909,
  "itir": 5731,
  "itis": 47157,
  "itler": 6626,
  "itleri": 15999,
  "itlerin": 28915,
  "itli": 16163,
  "itme": 25905,
  "ito": 26021,
  "iton": 45278,
  "itor": 17356,
  "itr": 23112,
  "its": 26130,
  "itt": 21981,
  "ittin": 33466,
  "ity": 4380,
  "itz": 31878,
  "itÃ¶r": 8115,
  "itÃ¶rÃ¼": 27354,
  "ium": 29923,
  "ius": 31191,
  "iv": 770,
  "iva": 20133,
  "ivacy": 47953,
  "ivan": 10535,
  "ivas": 5824,
  "ivate": 39152,
  "ive": 5965,
  "iver": 9233,
  "iverpool": 22915,
  "ivers": 1285,
  "iversal": 39658,
  "iversit": 1300,
  "iversity": 16413,
  "ivert": 13042,
  "ives": 28252,
  "ivi": 19837,
  "ivil": 3776,
  "ivo": 33745,
  "ivot": 37359,
  "ix": 8294,
  "ixel": 30568,
  "iy": 298,
  "iya": 4645,
  "iyad": 24867,
  "iyade": 22607,
  "iyah": 3767,
  "iyakat": 27900,
  "iyal": 21091,
  "iyan": 3823,
  "iyana": 16539,
  "iyanet": 9746,
  "iyanlar": 34179,
  "iyar": 4502,
  "iyarbakÄ±r": 5193,
  "iyaret": 7277,
  "iyas": 952,
  "iyat": 725,
  "iyatro": 4640,
  "iyatÄ": 35073,
  "iyatÄ±": 35075,
  "iyaz": 24423,
  "iyazi": 33370,
  "iydi": 3023,
  "iydim": 30426,
  "iye": 445,
  "iyecek": 25269,
  "iyede": 29621,
  "iyeden": 37784,
  "iyel": 5971,
  "iyeler": 12354,
  "iyeleri": 19912,
  "iyeli": 8957,
  "iyen": 14915,
  "iyenin": 13849,
  "iyer": 4048,
  "iyeri": 19049,
  "iyerler": 40236,
  "iyes": 19704,
  "iyesi": 1733,
  "iyespor": 42358,
  "iyet": 629,
  "iyete": 17786,
  "iyeti": 2102,
  "iyetin": 19470,
  "iyetinde": 24623,
  "iyetine": 22293,
  "iyetini": 7188,
  "iyetinin": 30079,
  "iyetle": 14028,
  "iyetleri": 43864,
  "iyetli": 32586,
  "iyetten": 37591,
  "iyetÃ§i": 44034,
  "iyev": 23362,
  "iyeye": 19859,
  "iyeyi": 28494,
  "iyi": 1805,
  "iyim": 3925,
  "iyiz": 4729,
  "iyken": 34953,
  "iyla": 23382,
  "iyle": 645,
  "iymiÅŁ": 23789,
  "iyo": 13357,
  "iyodik": 48919,
  "iyom": 46978,
  "iyon": 989,
  "iyonist": 28979,
  "iyopya": 35806,
  "iyor": 412,
  "iyordu": 3303,
  "iyordum": 19000,
  "iyorlar": 4880,
  "iyorlardÄ±": 31439,
  "iyorsa": 14700,
  "iyorsanÄ±z": 9911,
  "iyorsun": 19133,
  "iyorsunuz": 8856,
  "iyorum": 1066,
  "iyoruz": 1158,
  "iyos": 49581,
  "iyse": 15647,
  "iyseniz": 21290,
  "iyy": 25104,
  "iyye": 13693,
  "iyyet": 50055,
  "iyÃ¼z": 37930,
  "iz": 300,
  "iza": 28905,
  "izade": 46022,
  "izan": 29880,
  "izasyon": 3837,
  "izasyonu": 23219,
  "ization": 36280,
  "izce": 9999,
  "izde": 14374,
  "izdeki": 44655,
  "izden": 27962,
  "izdir": 49385,
  "ize": 1521,
  "ized": 26766,
  "izer": 24020,
  "izi": 1652,
  "izik": 3215,
  "izin": 11039,
  "izle": 22876,
  "izler": 15237,
  "izli": 11138,
  "izm": 2088,
  "izma": 22471,
  "izmatik": 45149,
  "izme": 12485,
  "izmet": 799,
  "izmi": 10073,
  "izmin": 8646,
  "izmir": 37677,
  "izmle": 45534,
  "izof": 32223,
  "izon": 36845,
  "izyon": 2848,
  "izz": 18085,
  "izza": 18758,
  "iÃ§": 692,
  "iÃ§e": 17002,
  "iÃ§ek": 3693,
  "iÃ§esi": 37392,
  "iÃ§eÄŁi": 23293,
  "iÃ§i": 4705,
  "iÃ§in": 9522,
  "iÃ§inde": 49294,
  "iÄŁ": 489,
  "iÄŁde": 12702,
  "iÄŁe": 7070,
  "iÄŁer": 890,
  "iÄŁeri": 8914,
  "iÄŁi": 1396,
  "iÄŁim": 27219,
  "iÄŁimiz": 24902,
  "iÄŁin": 6919,
  "iÄŁinde": 13438,
  "iÄŁindeki": 39153,
  "iÄŁinden": 33752,
  "iÄŁine": 13253,
  "iÄŁini": 11277,
  "iÄŁinin": 12548,
  "iÄŁit": 10192,
  "iÄŁiyle": 35386,
  "iÅŁ": 334,
  "iÅŁan": 8438,
  "iÅŁare": 43226,
  "iÅŁe": 9655,
  "iÅŁehir": 4959,
  "iÅŁer": 32982,
  "iÅŁi": 3204,
  "iÅŁik": 13941,
  "iÅŁim": 982,
  "iÅŁimi": 14882,
  "iÅŁin": 30093,
  "iÅŁini": 32955,
  "iÅŁkin": 15719,
  "iÅŁle": 11765,
  "iÅŁlem": 41731,
  "iÅŁler": 17943,
  "iÅŁleri": 3832,
  "iÅŁli": 10511,
  "iÅŁne": 45757,
  "iÅŁsel": 19485,
  "iÅŁt": 45915,
  "iÅŁte": 23069,
  "iÅŁtir": 796,
  "iÅŁÃ¶rt": 19593,
  "j": 74,
  "ja": 16753,
  "jack": 15995,
  "jan": 14929,
  "jantin": 15990,
  "jder": 18672,
  "je": 8813,
  "ject": 37226,
  "jeksiyon": 45530,
  "jektif": 32724,
  "jen": 6829,
  "jet": 19441,
  "jetaryen": 44917,
  "ji": 7534,
  "jik": 19163,
  "jin": 26780,
  "jinal": 10532,
  "jit": 33485,
  "jk": 41187,
  "jo": 45161,
  "jpg": 20323,
  "js": 43259,
  "ju": 29025,
  "jur": 32111,
  "juv": 13784,
  "k": 75,
  "ka": 990,
  "kab": 14920,
  "kabir": 34209,
  "kad": 34667,
  "kadar": 37662,
  "kadaÅŁ": 4936,
  "kadir": 15668,
  "kadÄ±n": 26100,
  "kaf": 36835,
  "kah": 15404,
  "kaha": 34572,
  "kal": 5424,
  "kalar": 47559,
  "kale": 9514,
  "kalori": 45012,
  "kalÄ±": 34917,
  "kam": 13493,
  "kambil": 48149,
  "kamil": 47326,
  "kamu": 45372,
  "kan": 1077,
  "kani": 46983,
  "kanlÄ±": 26040,
  "kanlÄ±k": 38508,
  "kanÄ±": 30072,
  "kanÄ±n": 43010,
  "kap": 9068,
  "kapÄ": 20845,
  "kapÄ±": 20847,
  "kar": 3653,
  "kara": 1721,
  "karahisar": 14621,
  "kardeÅŁ": 27660,
  "karlar": 29720,
  "kart": 27399,
  "karÅŁ": 40202,
  "kas": 8707,
  "kasa": 27782,
  "kastre": 49390,
  "kasÄ±": 37707,
  "kat": 1128,
  "kav": 30876,
  "kay": 11283,
  "kaya": 8219,
  "kaynak": 24320,
  "kaz": 14482,
  "kazan": 37061,
  "kaÃ§": 2148,
  "ke": 3040,
  "kek": 4940,
  "kel": 5671,
  "kele": 21503,
  "keli": 18146,
  "kem": 2786,
  "keme": 11675,
  "ken": 610,
  "kend": 24041,
  "kender": 10603,
  "kendi": 25933,
  "keni": 45059,
  "kenin": 3688,
  "kent": 6369,
  "kenti": 9316,
  "ker": 2018,
  "keri": 3863,
  "kes": 14824,
  "kesi": 15455,
  "kesin": 31505,
  "kest": 16025,
  "ket": 1022,
  "ketbol": 6259,
  "key": 27030,
  "kez": 47160,
  "keÅŁ": 27615,
  "kg": 22442,
  "ki": 572,
  "kide": 33734,
  "kie": 45746,
  "kif": 11499,
  "kil": 2208,
  "kiler": 4460,
  "kileri": 12891,
  "kilerin": 33154,
  "kili": 3200,
  "kim": 5660,
  "kin": 765,
  "kinci": 1800,
  "kinda": 40711,
  "kinden": 18411,
  "kine": 39806,
  "king": 12209,
  "kini": 41857,
  "kinin": 26496,
  "kinlik": 14332,
  "kins": 31053,
  "kir": 14606,
  "kiralama": 26587,
  "kisel": 23104,
  "kisi": 5598,
  "kit": 24463,
  "kitap": 14939,
  "kiye": 20405,
  "kiÅŁ": 17650,
  "kiÅŁehir": 5682,
  "kiÅŁi": 20255,
  "kk": 17022,
  "kl": 36552,
  "klar": 11384,
  "klareli": 15187,
  "klor": 32413,
  "km": 16844,
  "kn": 24506,
  "known": 36193,
  "ko": 6745,
  "koca": 43698,
  "kok": 33159,
  "kol": 4914,
  "kolay": 45330,
  "koloji": 39303,
  "kom": 24434,
  "kon": 5308,
  "konu": 41927,
  "konusu": 23525,
  "kor": 6477,
  "kord": 45986,
  "kork": 40895,
  "kot": 24641,
  "kov": 29541,
  "koz": 13723,
  "koÃ§": 14702,
  "koÅŁ": 15132,
  "koÅŁa": 18207,
  "kr": 15922,
  "kray": 5519,
  "krayn": 27769,
  "krayna": 5943,
  "ks": 7209,
  "ksiyet": 25509,
  "ksiyete": 29496,
  "ksiyon": 5248,
  "kswagen": 22057,
  "ksÃ¼r": 14296,
  "kt": 49751,
  "ku": 3937,
  "kuaz": 35362,
  "kul": 11042,
  "kullan": 22908,
  "kulu": 49912,
  "kum": 20944,
  "kun": 7289,
  "kur": 5373,
  "kurgu": 36162,
  "kurmay": 13601,
  "kurt": 13614,
  "kuru": 43382,
  "kurum": 42340,
  "kus": 45905,
  "kusuz": 23175,
  "kut": 13093,
  "kuyu": 43954,
  "kuÅŁ": 14082,
  "kuÅŁaÄŁÄ±": 38760,
  "ky": 8437,
  "kz": 10261,
  "kÃ¢": 32990,
  "kÃ¢m": 49376,
  "kÃ¢n": 33931,
  "kÃ¢r": 9725,
  "kÃ¶": 12613,
  "kÃ¶k": 36072,
  "kÃ¶prÃ¼": 31872,
  "kÃ¶tÃ¼": 33489,
  "kÃ¶y": 5540,
  "kÃ¼": 1163,
  "kÃ¼dar": 13175,
  "kÃ¼l": 44340,
  "kÃ¼ler": 18254,
  "kÃ¼ltÃ¼r": 27665,
  "kÃ¼ltÃ¼rel": 45262,
  "kÃ¼m": 38037,
  "kÃ¼n": 1596,
  "kÃ¼r": 28369,
  "kÃ¼Ã§Ã¼k": 31138,
  "kÄ": 1395,
  "kÄ±": 1398,
  "kÄ±l": 18439,
  "kÄ±lap": 36103,
  "kÄ±lÄ±Ã§": 29659,
  "kÄ±m": 39264,
  "kÄ±n": 3727,
  "kÄ±r": 4761,
  "kÄ±ran": 36077,
  "kÄ±rmÄ±zÄ±": 22585,
  "kÄ±rmÄ±zÄ±lÄ±": 25182,
  "kÄ±rÄ±": 6563,
  "kÄ±rÄ±m": 16839,
  "kÄ±rÄ±mÄ±": 35668,
  "kÄ±s": 22481,
  "kÄ±sa": 48739,
  "kÄ±sÄ±": 42527,
  "kÄ±y": 33844,
  "kÄ±ya": 40589,
  "kÄ±z": 19129,
  "kÄ±ÅŁ": 10027,
  "l": 76,
  "la": 383,
  "lab": 35759,
  "lacivert": 25092,
  "lacivertli": 40478,
  "lad": 719,
  "lada": 42892,
  "ladan": 35597,
  "ladeÅŁ": 34354,
  "ladi": 36467,
  "ladim": 18165,
  "ladimir": 20866,
  "ladÄ": 1108,
  "ladÄ±": 1109,
  "ladÄ±k": 2992,
  "ladÄ±klarÄ±": 11400,
  "ladÄ±klarÄ±nÄ±": 15996,
  "ladÄ±ktan": 11160,
  "ladÄ±lar": 15949,
  "ladÄ±m": 4813,
  "ladÄ±n": 35482,
  "ladÄ±nÄ±z": 27749,
  "ladÄ±ÄŁ": 3292,
  "ladÄ±ÄŁÄ±": 2664,
  "ladÄ±ÄŁÄ±m": 14821,
  "ladÄ±ÄŁÄ±mÄ±z": 8303,
  "ladÄ±ÄŁÄ±nda": 32028,
  "ladÄ±ÄŁÄ±nÄ±": 6404,
  "ladÄ±ÄŁÄ±nÄ±z": 12827,
  "ladÄ±ÄŁÄ±nÄ±zda": 23714,
  "lag": 41577,
  "lah": 1129,
  "lahat": 35444,
  "laj": 5505,
  "lak": 1297,
  "laka": 3017,
  "lake": 48595,
  "laki": 14112,
  "lal": 5057,
  "lalar": 45635,
  "lali": 18479,
  "lallahu": 41063,
  "lam": 444,
  "lama": 1046,
  "lamada": 9468,
  "lamadan": 15049,
  "lamak": 1384,
  "lamakta": 37024,
  "lamaktadÄ±r": 10524,
  "lamaktan": 27871,
  "lamalar": 7522,
  "lamalara": 43025,
  "lamalarda": 47839,
  "lamalarÄ±": 8140,
  "lamalarÄ±n": 40564,
  "lamalÄ±": 21335,
  "lamanÄ±n": 9849,
  "lamanÄ±z": 10521,
  "lamanÄ±za": 37225,
  "lamasÄ±": 4036,
  "lamasÄ±na": 14618,
  "lamasÄ±nda": 25413,
  "lamasÄ±nÄ±": 15865,
  "lamasÄ±nÄ±n": 23879,
  "lamat": 29364,
  "lamatuar": 34924,
  "lamaya": 5440,
  "lamayla": 38340,
  "lamayÄ±": 10184,
  "lamaz": 22406,
  "lament": 9153,
  "lamenter": 22570,
  "lamÄ±ÅŁ": 5318,
  "lamÄ±ÅŁtÄ±": 19105,
  "lamÄ±ÅŁtÄ±r": 13174,
  "lan": 356,
  "lana": 13652,
  "lanabilir": 7392,
  "lanacak": 10382,
  "lanacaÄŁÄ±": 36212,
  "lanan": 1335,
  "lananlar": 46359,
  "lanarak": 7743,
  "land": 4885,
  "landa": 5649,
  "landalÄ±": 21489,
  "landiya": 19257,
  "lands": 32371,
  "landÄ±": 1947,
  "landÄ±m": 45625,
  "landÄ±r": 1727,
  "landÄ±rma": 9791,
  "landÄ±rÄ±lmasÄ±": 40172,
  "landÄ±rÄ±lmÄ±ÅŁ": 37661,
  "landÄ±ÄŁÄ±": 7621,
  "landÄ±ÄŁÄ±nda": 20948,
  "landÄ±ÄŁÄ±nÄ±": 11524,
  "langÄ±Ã§": 10540,
  "lanma": 4485,
  "lanmadan": 48632,
  "lanmak": 15010,
  "lanmaktadÄ±r": 8423,
  "lanmalÄ±dÄ±r": 33198,
  "lanmamÄ±ÅŁ": 30165,
  "lanmanÄ±n": 27303,
  "lanmasÄ±": 3287,
  "lanmasÄ±na": 16233,
  "lanmasÄ±nÄ±": 16055,
  "lanmasÄ±nÄ±n": 31010,
  "lanmasÄ±yla": 43451,
  "lanmaya": 14841,
  "lanmayÄ±": 27850,
  "lanmaz": 11023,
  "lanmÄ±ÅŁ": 2836,
  "lanmÄ±ÅŁtÄ±": 22726,
  "lanmÄ±ÅŁtÄ±r": 5438,
  "lant": 5413,
  "lanta": 29134,
  "lantÄ±": 7122,
  "lantÄ±lar": 34584,
  "lanÄ±n": 17838,
  "lanÄ±p": 15283,
  "lanÄ±r": 3616,
  "lanÄ±rken": 20864,
  "lanÄ±yor": 5109,
  "lar": 277,
  "lara": 667,
  "larak": 464,
  "larca": 3328,
  "lard": 43095,
  "larda": 766,
  "lardaki": 4844,
  "lardan": 1043,
  "lardandÄ±r": 39220,
  "lardÄ±": 3702,
  "lardÄ±r": 2079,
  "lare": 42010,
  "lari": 8503,
  "larin": 27061,
  "larini": 35408,
  "larken": 7618,
  "larla": 1137,
  "larlar": 42280,
  "larsa": 17205,
  "larsanÄ±z": 43028,
  "larus": 26132,
  "larÄ": 377,
  "larÄ±": 378,
  "larÄ±dÄ±r": 11002,
  "larÄ±m": 3453,
  "larÄ±ma": 21603,
  "larÄ±mda": 44866,
  "larÄ±mdan": 23470,
  "larÄ±mla": 14525,
  "larÄ±mÄ±": 8167,
  "larÄ±mÄ±n": 13447,
  "larÄ±mÄ±z": 1185,
  "larÄ±mÄ±za": 4743,
  "larÄ±mÄ±zda": 10326,
  "larÄ±mÄ±zdan": 10533,
  "larÄ±mÄ±zla": 8360,
  "larÄ±mÄ±zÄ": 4132,
  "larÄ±mÄ±zÄ±": 4133,
  "larÄ±mÄ±zÄ±n": 3633,
  "larÄ±n": 357,
  "larÄ±na": 925,
  "larÄ±nca": 24682,
  "larÄ±nda": 1031,
  "larÄ±ndaki": 4816,
  "larÄ±ndan": 1359,
  "larÄ±ndandÄ±r": 38238,
  "larÄ±nÄ": 673,
  "larÄ±nÄ±": 674,
  "larÄ±nÄ±n": 850,
  "larÄ±nÄ±z": 2186,
  "larÄ±nÄ±za": 6892,
  "larÄ±nÄ±zda": 12262,
  "larÄ±nÄ±zdan": 17283,
  "larÄ±nÄ±zla": 13512,
  "larÄ±nÄ±zÄ±": 3273,
  "larÄ±nÄ±zÄ±n": 7103,
  "larÄ±yla": 2048,
  "larÄ±z": 44264,
  "las": 1810,
  "lasa": 30447,
  "lash": 13261,
  "lasik": 4949,
  "lasman": 7493,
  "lass": 11438,
  "last": 38885,
  "lasti": 42196,
  "lastik": 25753,
  "lasyon": 5551,
  "lasyonu": 26305,
  "lasÄ±": 10728,
  "lasÄ±n": 19713,
  "lat": 718,
  "latan": 20509,
  "late": 34256,
  "latform": 2173,
  "latma": 10104,
  "latmak": 33530,
  "lattÄ±": 41154,
  "latÄ±cÄ±": 30770,
  "latÄ±n": 22308,
  "lav": 6652,
  "lava": 37726,
  "lave": 42577,
  "lay": 742,
  "laya": 21891,
  "layabilir": 11157,
  "layabilirsiniz": 8806,
  "layacak": 6512,
  "layacaktÄ±r": 33453,
  "layacaÄŁÄ±": 41468,
  "layacaÄŁÄ±z": 30089,
  "layalÄ±m": 19013,
  "layan": 1279,
  "layanlar": 27274,
  "layarak": 3828,
  "layer": 47139,
  "layt": 29556,
  "layÄ±": 2468,
  "layÄ±cÄ±": 4720,
  "layÄ±cÄ±sÄ±": 33417,
  "layÄ±n": 3703,
  "layÄ±nca": 40269,
  "layÄ±nÄ±z": 9299,
  "layÄ±p": 4542,
  "laz": 28521,
  "laÃ§": 7804,
  "laÄŁÄ±": 25940,
  "laÅŁ": 611,
  "laÅŁan": 14304,
  "laÅŁma": 5167,
  "laÅŁmak": 32233,
  "laÅŁmanÄ±n": 27210,
  "laÅŁmasÄ±": 8336,
  "laÅŁmaya": 25037,
  "laÅŁmayÄ±": 35087,
  "laÅŁmÄ±ÅŁ": 13139,
  "laÅŁtÄ±": 29769,
  "laÅŁtÄ±r": 2784,
  "laÅŁtÄ±ran": 40063,
  "laÅŁtÄ±rma": 8926,
  "laÅŁtÄ±rmak": 33438,
  "laÅŁtÄ±rÄ±cÄ±": 38396,
  "laÅŁtÄ±rÄ±lmasÄ±": 41890,
  "laÅŁtÄ±rÄ±lmÄ±ÅŁ": 22275,
  "laÅŁtÄ±ÄŁÄ±": 49542,
  "laÅŁÄ±k": 6585,
  "laÅŁÄ±m": 23280,
  "laÅŁÄ±r": 36361,
  "laÅŁÄ±yor": 40200,
  "ld": 7831,
  "le": 330,
  "league": 35749,
  "lean": 48107,
  "lear": 49773,
  "lease": 32278,
  "leb": 31809,
  "lebi": 48842,
  "lec": 10801,
  "lecek": 46579,
  "lection": 39930,
  "led": 6395,
  "lede": 27014,
  "leden": 14468,
  "ledge": 49438,
  "ledi": 3536,
  "ledik": 5259,
  "ledikleri": 16094,
  "lediklerini": 17144,
  "ledikten": 16998,
  "ledikÃ§e": 22683,
  "lediler": 23727,
  "ledim": 11553,
  "ledir": 32187,
  "lediÄŁ": 14711,
  "lediÄŁi": 4118,
  "lediÄŁim": 22806,
  "lediÄŁimiz": 14577,
  "lediÄŁini": 12352,
  "lediÄŁiniz": 14431,
  "left": 21014,
  "leg": 44531,
  "lege": 32969,
  "lek": 2220,
  "leket": 6493,
  "leki": 12996,
  "lekli": 19070,
  "leks": 12406,
  "leksi": 19195,
  "lem": 480,
  "leme": 1195,
  "lemede": 35252,
  "lemeden": 35713,
  "lemek": 1773,
  "lemektedir": 22511,
  "lemeler": 18817,
  "lemeleri": 20962,
  "lemeli": 35845,
  "lemenin": 23770,
  "lemeniz": 39116,
  "lement": 27076,
  "lemesi": 6176,
  "lemesine": 15796,
  "lemesini": 33234,
  "lemeye": 5385,
  "lemeyi": 20921,
  "lemez": 38757,
  "lemi": 13085,
  "lemiÅŁ": 8281,
  "lemiÅŁti": 42884,
  "lemiÅŁtir": 37333,
  "lemler": 33618,
  "lemleri": 33966,
  "len": 468,
  "lence": 33224,
  "lender": 39540,
  "lendi": 2709,
  "lendir": 985,
  "lendirdi": 48251,
  "lendiren": 28995,
  "lendirici": 14910,
  "lendirilmesi": 29777,
  "lendirme": 6022,
  "lendirmek": 19051,
  "lendiÄŁi": 13180,
  "lendiÄŁini": 21656,
  "lenebilir": 12247,
  "lenecek": 14822,
  "lenen": 1448,
  "lenerek": 10999,
  "leni": 48441,
  "lenin": 12775,
  "lenip": 22884,
  "lenir": 3426,
  "lenirken": 17189,
  "leniyor": 6567,
  "lenme": 2826,
  "lenmek": 18196,
  "lenmektedir": 11784,
  "lenmesi": 2960,
  "lenmesine": 14707,
  "lenmesini": 17635,
  "lenmeye": 17041,
  "lenmiÅŁ": 3351,
  "lenmiÅŁtir": 12683,
  "lent": 20991,
  "lenti": 48594,
  "ler": 291,
  "lera": 29894,
  "lerarasÄ±": 23995,
  "lerce": 2727,
  "lerde": 960,
  "lerdeki": 7593,
  "lerden": 1257,
  "lerdendir": 37097,
  "lerdi": 5947,
  "lerdir": 2890,
  "lere": 789,
  "lerek": 42870,
  "leri": 403,
  "leridir": 16112,
  "lerim": 5066,
  "lerimden": 28612,
  "lerime": 30959,
  "lerimi": 10411,
  "lerimin": 30160,
  "lerimiz": 1397,
  "lerimizde": 11245,
  "lerimizden": 11711,
  "lerimize": 5845,
  "lerimizi": 4395,
  "lerimizin": 5166,
  "lerimizle": 12163,
  "lerimle": 26509,
  "lerin": 564,
  "lerince": 12466,
  "lerinde": 1170,
  "lerindeki": 6223,
  "lerinden": 1351,
  "lerindendir": 29117,
  "lerine": 1001,
  "lerini": 714,
  "lerinin": 974,
  "leriniz": 4571,
  "lerinizde": 21608,
  "lerinizden": 24536,
  "lerinize": 8025,
  "lerinizi": 3493,
  "lerinizin": 11830,
  "lerinizle": 19824,
  "leriyle": 2161,
  "lerken": 5955,
  "lerle": 1389,
  "lerse": 14091,
  "les": 6029,
  "lesi": 33635,
  "lesin": 17656,
  "less": 34732,
  "lestir": 42748,
  "let": 623,
  "lete": 47665,
  "leten": 48953,
  "leti": 23286,
  "letim": 46581,
  "letin": 49441,
  "letiÅŁim": 4878,
  "letme": 43752,
  "lett": 48955,
  "lev": 3312,
  "lex": 7729,
  "ley": 711,
  "leye": 12665,
  "leyebilir": 9871,
  "leyebilirsiniz": 8384,
  "leyecek": 6847,
  "leyen": 1650,
  "leyerek": 5222,
  "leyici": 4433,
  "leyiciler": 36482,
  "leyicisi": 41851,
  "leyin": 4644,
  "leyip": 6946,
  "leyle": 47672,
  "leyse": 13115,
  "lez": 40277,
  "leÄŁ": 6526,
  "leÄŁi": 12559,
  "leÅŁ": 604,
  "leÅŁen": 11017,
  "leÅŁik": 17112,
  "leÅŁir": 23690,
  "leÅŁiyor": 26507,
  "leÅŁme": 4223,
  "leÅŁmek": 35729,
  "leÅŁmenin": 19944,
  "leÅŁmesi": 14870,
  "leÅŁmesine": 40089,
  "leÅŁmesini": 45114,
  "leÅŁmeye": 22945,
  "leÅŁmeyi": 40188,
  "leÅŁmiÅŁ": 10655,
  "leÅŁti": 18515,
  "leÅŁtir": 927,
  "leÅŁtiren": 26458,
  "leÅŁtirerek": 49603,
  "leÅŁtirici": 27048,
  "leÅŁtirilen": 46806,
  "leÅŁtirilmesi": 27206,
  "leÅŁtirilmiÅŁ": 12410,
  "leÅŁtirir": 34048,
  "leÅŁtirme": 7872,
  "leÅŁtirmek": 13624,
  "leÅŁtirmeye": 36259,
  "leÅŁtiÄŁi": 39353,
  "li": 349,
  "lia": 47891,
  "lib": 12039,
  "lic": 8580,
  "lication": 40121,
  "lick": 26998,
  "lid": 25309,
  "lide": 32731,
  "lider": 47527,
  "lidi": 49600,
  "lidir": 16843,
  "lie": 19636,
  "lient": 50227,
  "lif": 2405,
  "life": 43296,
  "lift": 39087,
  "lig": 11574,
  "liga": 33073,
  "ligat": 27065,
  "light": 23186,
  "ligi": 22360,
  "lik": 439,
  "likaya": 46993,
  "likdÃ¼zÃ¼": 19348,
  "like": 19664,
  "likeli": 27121,
  "likle": 1002,
  "likler": 5721,
  "likleri": 4256,
  "liklerin": 32148,
  "liklerini": 30259,
  "likli": 28492,
  "likte": 6759,
  "likten": 10348,
  "liktir": 39471,
  "lil": 12824,
  "liler": 4112,
  "lilerden": 47794,
  "lilere": 13573,
  "lileri": 15698,
  "lilerin": 9544,
  "lilerle": 47720,
  "lili": 27479,
  "lilik": 2130,
  "liliÄŁ": 4592,
  "liliÄŁe": 18775,
  "liliÄŁi": 5203,
  "liliÄŁin": 16615,
  "liliÄŁinden": 42178,
  "liliÄŁine": 20928,
  "liliÄŁini": 10723,
  "liliÄŁinin": 19474,
  "lim": 1498,
  "lima": 7750,
  "limi": 14536,
  "lin": 2483,
  "linda": 48505,
  "linde": 22077,
  "line": 2232,
  "lines": 32991,
  "ling": 9473,
  "linger": 24876,
  "lini": 9536,
  "linik": 7991,
  "linin": 13960,
  "liniÄŁ": 26389,
  "liniÄŁi": 30313,
  "link": 14642,
  "lip": 9698,
  "lir": 38142,
  "lis": 2201,
  "lisans": 26758,
  "lish": 11536,
  "lisi": 3443,
  "lispor": 25210,
  "list": 26042,
  "lit": 8032,
  "litepe": 46826,
  "livan": 20470,
  "liy": 5911,
  "liya": 29850,
  "liyat": 5221,
  "liydi": 10870,
  "liye": 3760,
  "liyesi": 15920,
  "liyet": 5317,
  "liyi": 45571,
  "liyim": 27637,
  "liyiz": 44490,
  "liyle": 46725,
  "liyor": 3841,
  "liyordu": 26218,
  "liyorum": 18338,
  "liyoruz": 7818,
  "liyse": 36264,
  "liÄŁ": 979,
  "liÄŁe": 3932,
  "liÄŁi": 905,
  "liÄŁim": 37135,
  "liÄŁimi": 46482,
  "liÄŁimiz": 19311,
  "liÄŁimize": 39166,
  "liÄŁimizi": 20595,
  "liÄŁimizin": 34956,
  "liÄŁin": 4106,
  "liÄŁinde": 3969,
  "liÄŁindeki": 18989,
  "liÄŁinden": 9304,
  "liÄŁine": 4218,
  "liÄŁini": 2800,
  "liÄŁinin": 5076,
  "liÄŁiniz": 29333,
  "liÄŁinizi": 23239,
  "liÄŁiyle": 8254,
  "lk": 2230,
  "ll": 12635,
  "lm": 22984,
  "ln": 49337,
  "lo": 1918,
  "load": 9833,
  "lob": 6147,
  "lobal": 6996,
  "loc": 47696,
  "lock": 21371,
  "log": 2711,
  "lok": 31526,
  "lom": 7158,
  "loma": 23530,
  "lon": 7913,
  "long": 36474,
  "look": 30541,
  "lop": 13429,
  "lor": 5717,
  "lorer": 29432,
  "los": 5608,
  "lose": 38285,
  "loss": 41845,
  "losu": 10602,
  "losuz": 9115,
  "lot": 4982,
  "loud": 16411,
  "lov": 15854,
  "lovak": 26975,
  "lovakya": 33280,
  "loven": 29311,
  "low": 10906,
  "lr": 44904,
  "ls": 16017,
  "lt": 39539,
  "lu": 531,
  "lub": 8196,
  "lubu": 48585,
  "lug": 40161,
  "lugin": 46072,
  "luk": 1167,
  "lukla": 6636,
  "luklar": 23417,
  "luklarÄ±": 27244,
  "lukta": 34860,
  "luktan": 26544,
  "lular": 16035,
  "lulu": 2949,
  "luluk": 2384,
  "luluÄŁ": 4817,
  "luluÄŁu": 5045,
  "luluÄŁun": 48379,
  "lum": 1371,
  "lun": 37473,
  "lunun": 9837,
  "lup": 7486,
  "lus": 6126,
  "lusu": 9475,
  "lut": 19089,
  "luy": 45296,
  "luya": 42768,
  "luydu": 47612,
  "luyor": 10516,
  "luyu": 47014,
  "luyum": 24966,
  "luyuz": 30758,
  "luÄŁ": 2379,
  "luÄŁa": 8291,
  "luÄŁu": 2724,
  "luÄŁun": 8904,
  "luÄŁuna": 12699,
  "luÄŁunda": 10880,
  "luÄŁundaki": 32359,
  "luÄŁundan": 20317,
  "luÄŁunu": 8765,
  "luÄŁunun": 12242,
  "luÄŁuyla": 35415,
  "ly": 4043,
  "lymp": 34678,
  "lyn": 45004,
  "lywood": 19804,
  "lÃ¢": 2667,
  "lÃ¢h": 17662,
  "lÃ¢k": 18751,
  "lÃ¢l": 29765,
  "lÃ¢m": 6356,
  "lÃ¢n": 38797,
  "lÃ¢nÃ¢": 43667,
  "lÃ®": 8537,
  "lÃ»": 24538,
  "lÃ¼": 655,
  "lÃ¼k": 1253,
  "lÃ¼kte": 12608,
  "lÃ¼l": 1874,
  "lÃ¼ler": 21258,
  "lÃ¼lÃ¼k": 17397,
  "lÃ¼lÃ¼ÄŁÃ¼": 41087,
  "lÃ¼m": 2629,
  "lÃ¼nÃ¼n": 29298,
  "lÃ¼str": 45320,
  "lÃ¼t": 12916,
  "lÃ¼y": 34971,
  "lÃ¼ydÃ¼": 44844,
  "lÃ¼yor": 22098,
  "lÃ¼ÄŁ": 2273,
  "lÃ¼ÄŁe": 6836,
  "lÃ¼ÄŁÃ¼": 2025,
  "lÃ¼ÄŁÃ¼n": 17573,
  "lÃ¼ÄŁÃ¼nde": 10058,
  "lÃ¼ÄŁÃ¼nden": 33102,
  "lÃ¼ÄŁÃ¼ne": 8009,
  "lÃ¼ÄŁÃ¼nÃ¼": 8704,
  "lÃ¼ÄŁÃ¼nÃ¼n": 16651,
  "lÃ¼ÄŁÃ¼yle": 46157,
  "lÃ½": 22347,
  "lÄ": 408,
  "lÄ±": 409,
  "lÄ±ca": 7307,
  "lÄ±can": 22951,
  "lÄ±dÄ±r": 5020,
  "lÄ±k": 501,
  "lÄ±kla": 2840,
  "lÄ±klar": 4152,
  "lÄ±klarÄ±": 4578,
  "lÄ±klarÄ±n": 18921,
  "lÄ±klarÄ±nÄ±": 24946,
  "lÄ±klÄ±": 4035,
  "lÄ±kta": 7008,
  "lÄ±ktan": 8624,
  "lÄ±lar": 8182,
  "lÄ±larÄ±n": 20414,
  "lÄ±lÄ±k": 2985,
  "lÄ±lÄ±ÄŁ": 9238,
  "lÄ±lÄ±ÄŁa": 34636,
  "lÄ±lÄ±ÄŁÄ±": 8072,
  "lÄ±lÄ±ÄŁÄ±n": 24699,
  "lÄ±lÄ±ÄŁÄ±na": 43468,
  "lÄ±lÄ±ÄŁÄ±nÄ±": 15068,
  "lÄ±lÄ±ÄŁÄ±nÄ±n": 34106,
  "lÄ±m": 22893,
  "lÄ±na": 34376,
  "lÄ±nda": 2199,
  "lÄ±nÄ±n": 13691,
  "lÄ±oÄŁlu": 32533,
  "lÄ±r": 47270,
  "lÄ±y": 15873,
  "lÄ±ya": 27191,
  "lÄ±ydÄ±": 13501,
  "lÄ±yor": 2055,
  "lÄ±yordu": 18878,
  "lÄ±yorlar": 37613,
  "lÄ±yorum": 8480,
  "lÄ±yoruz": 6012,
  "lÄ±yÄ±": 31656,
  "lÄ±yÄ±m": 27068,
  "lÄ±yÄ±z": 23807,
  "lÄ±ÄŁ": 1124,
  "lÄ±ÄŁa": 3713,
  "lÄ±ÄŁÄ±": 954,
  "lÄ±ÄŁÄ±m": 24507,
  "lÄ±ÄŁÄ±mÄ±": 43463,
  "lÄ±ÄŁÄ±mÄ±z": 12201,
  "lÄ±ÄŁÄ±mÄ±zÄ±": 31288,
  "lÄ±ÄŁÄ±mÄ±zÄ±n": 33659,
  "lÄ±ÄŁÄ±n": 3556,
  "lÄ±ÄŁÄ±na": 3873,
  "lÄ±ÄŁÄ±nca": 37181,
  "lÄ±ÄŁÄ±nda": 5595,
  "lÄ±ÄŁÄ±ndaki": 20486,
  "lÄ±ÄŁÄ±ndan": 8970,
  "lÄ±ÄŁÄ±nÄ±": 3242,
  "lÄ±ÄŁÄ±nÄ±n": 5162,
  "lÄ±ÄŁÄ±nÄ±z": 30135,
  "lÄ±ÄŁÄ±nÄ±zÄ±": 29430,
  "lÄ±ÄŁÄ±yla": 10040,
  "lÄ±ÅŁ": 2565,
  "lÐ°": 50030,
  "m": 77,
  "ma": 437,
  "mabahÃ§e": 39498,
  "mac": 8420,
  "maca": 14238,
  "macun": 43821,
  "macÄ±": 4554,
  "macÄ±lar": 16611,
  "macÄ±nÄ±n": 41773,
  "macÄ±sÄ±": 38486,
  "mad": 8941,
  "mada": 3402,
  "madaki": 29152,
  "madan": 1601,
  "madde": 15433,
  "maddesi": 46416,
  "madÄ±": 3009,
  "madÄ±k": 8548,
  "madÄ±klarÄ±": 24072,
  "madÄ±klarÄ±nÄ±": 29403,
  "madÄ±kÃ§a": 26309,
  "madÄ±lar": 19101,
  "madÄ±m": 8417,
  "madÄ±n": 43659,
  "madÄ±nÄ±z": 30634,
  "madÄ±r": 15572,
  "madÄ±ysanÄ±z": 40986,
  "madÄ±ÄŁ": 5944,
  "madÄ±ÄŁÄ±": 4351,
  "madÄ±ÄŁÄ±m": 24481,
  "madÄ±ÄŁÄ±mÄ±z": 29611,
  "madÄ±ÄŁÄ±na": 24318,
  "madÄ±ÄŁÄ±nda": 36218,
  "madÄ±ÄŁÄ±ndan": 22988,
  "madÄ±ÄŁÄ±nÄ±": 5748,
  "madÄ±ÄŁÄ±nÄ±n": 38924,
  "madÄ±ÄŁÄ±nÄ±z": 20987,
  "mag": 50005,
  "mah": 30835,
  "mail": 4013,
  "main": 13217,
  "maj": 27874,
  "mak": 417,
  "makam": 15857,
  "makla": 6902,
  "maksÄ±zÄ±n": 34358,
  "makta": 2790,
  "maktadÄ±r": 867,
  "maktadÄ±rlar": 18275,
  "maktan": 4951,
  "maktaydÄ±": 40051,
  "maktÄ±r": 9092,
  "mal": 2276,
  "malar": 713,
  "malara": 8488,
  "malarda": 11786,
  "malardan": 20692,
  "malarla": 21986,
  "malarÄ": 2006,
  "malarÄ±": 2007,
  "malarÄ±n": 6579,
  "malarÄ±na": 7686,
  "malarÄ±nda": 18453,
  "malarÄ±ndan": 24968,
  "malarÄ±nÄ±": 5590,
  "malarÄ±nÄ±n": 10793,
  "malarÄ±yla": 38240,
  "mali": 28945,
  "malink": 35027,
  "malzeme": 38550,
  "malÄ±": 1633,
  "malÄ±dÄ±r": 2811,
  "malÄ±k": 15195,
  "malÄ±sÄ±n": 30999,
  "malÄ±sÄ±nÄ±z": 6430,
  "malÄ±ydÄ±": 34897,
  "malÄ±yÄ±m": 16018,
  "malÄ±yÄ±z": 9306,
  "mam": 932,
  "mama": 10960,
  "mamak": 3307,
  "mamakta": 24410,
  "mamaktadÄ±r": 6378,
  "mamalarÄ±": 26240,
  "mamalÄ±": 13026,
  "mamalÄ±dÄ±r": 8919,
  "mamalÄ±sÄ±nÄ±z": 38337,
  "mamanÄ±z": 26752,
  "mamasÄ±": 3944,
  "mamasÄ±na": 24180,
  "mamasÄ±ndan": 49558,
  "mamasÄ±nÄ±": 22462,
  "mamasÄ±nÄ±n": 42924,
  "mamaya": 19978,
  "mamayÄ±": 41282,
  "mamÄ": 23540,
  "mamÄ±": 23550,
  "mamÄ±n": 45911,
  "mamÄ±z": 3016,
  "mamÄ±za": 19851,
  "mamÄ±zda": 45580,
  "mamÄ±zÄ±": 14294,
  "mamÄ±zÄ±n": 35650,
  "mamÄ±ÅŁ": 3156,
  "mamÄ±ÅŁtÄ±": 14415,
  "mamÄ±ÅŁtÄ±m": 49688,
  "mamÄ±ÅŁtÄ±r": 8763,
  "man": 525,
  "mana": 23038,
  "mand": 41381,
  "mani": 37907,
  "manlar": 28926,
  "manlarÄ±": 28414,
  "manlÄ±k": 5683,
  "mann": 19694,
  "manuel": 37629,
  "manÄ±": 2950,
  "manÄ±n": 1625,
  "manÄ±z": 1931,
  "manÄ±za": 7620,
  "manÄ±zda": 33747,
  "manÄ±zÄ±": 5368,
  "manÄ±zÄ±n": 31164,
  "mar": 3022,
  "mara": 7457,
  "maraÅŁ": 8825,
  "maris": 14605,
  "mark": 14692,
  "market": 27610,
  "mart": 11204,
  "marÄ±m": 11775,
  "mas": 728,
  "masa": 16015,
  "masaydÄ±": 43856,
  "masi": 18643,
  "master": 25425,
  "masya": 13304,
  "masyon": 9435,
  "masÄ±": 568,
  "masÄ±dÄ±r": 12433,
  "masÄ±n": 6494,
  "masÄ±na": 1560,
  "masÄ±nda": 3313,
  "masÄ±ndaki": 27567,
  "masÄ±ndan": 4691,
  "masÄ±nlar": 30809,
  "masÄ±nÄ±": 1449,
  "masÄ±nÄ±n": 2486,
  "masÄ±yla": 4796,
  "masÄ±z": 15841,
  "mat": 9106,
  "matik": 10698,
  "matoloji": 47719,
  "mavi": 28682,
  "max": 36500,
  "may": 1411,
  "maya": 840,
  "mayabilir": 24885,
  "mayacak": 4131,
  "mayacaktÄ±r": 11837,
  "mayacaÄŁÄ±": 15177,
  "mayacaÄŁÄ±m": 21357,
  "mayacaÄŁÄ±na": 35925,
  "mayacaÄŁÄ±nÄ±": 13910,
  "mayacaÄŁÄ±z": 17023,
  "mayalÄ±m": 14002,
  "mayan": 2519,
  "mayanlar": 33606,
  "mayarak": 20207,
  "mayayÄ±m": 49369,
  "maye": 11158,
  "mayi": 46447,
  "mayla": 11486,
  "mayÄ±": 1406,
  "mayÄ±n": 3118,
  "mayÄ±nca": 32853,
  "mayÄ±nÄ±z": 16151,
  "mayÄ±p": 22963,
  "mayÄ±z": 21959,
  "maz": 1084,
  "mazdÄ±": 31803,
  "mazlar": 13345,
  "mazlÄ±k": 10841,
  "mazon": 11267,
  "mazsa": 15150,
  "mazsÄ±nÄ±z": 41030,
  "mazÄ±": 45187,
  "maÃ§": 19987,
  "maÃ§i": 44117,
  "maÄŁ": 45084,
  "maÄŁa": 35554,
  "maÄŁÄ±": 32818,
  "maÅŁÄ±k": 32151,
  "mb": 38692,
  "md": 49064,
  "me": 565,
  "meb": 43316,
  "mec": 10317,
  "mece": 11891,
  "meci": 34969,
  "med": 2895,
  "mede": 5346,
  "medeki": 40381,
  "meden": 2166,
  "medi": 3862,
  "medik": 8325,
  "medikleri": 32038,
  "mediklerini": 43514,
  "medikÃ§e": 34108,
  "mediler": 20806,
  "medim": 11053,
  "medin": 39112,
  "mediniz": 43798,
  "medir": 27192,
  "mediÄŁ": 14514,
  "mediÄŁi": 6854,
  "mediÄŁim": 29520,
  "mediÄŁimiz": 37114,
  "mediÄŁinden": 36788,
  "mediÄŁine": 42445,
  "mediÄŁini": 9159,
  "mediÄŁiniz": 34174,
  "medya": 43452,
  "mega": 21566,
  "meh": 35966,
  "mehmet": 47013,
  "mek": 494,
  "mekle": 9953,
  "meksizin": 25456,
  "mekt": 970,
  "mekte": 3549,
  "mektedir": 1025,
  "mektedirler": 23266,
  "mekten": 6855,
  "mekteydi": 21326,
  "mekteyim": 33535,
  "mekteyiz": 7575,
  "mektir": 11906,
  "mekÃ¶y": 30115,
  "mel": 3084,
  "meler": 1554,
  "melerde": 22524,
  "melerden": 33075,
  "melere": 19219,
  "meleri": 2785,
  "melerin": 6250,
  "melerinde": 26963,
  "melerinden": 37379,
  "melerine": 10323,
  "melerini": 7715,
  "melerinin": 20645,
  "melerle": 37065,
  "meli": 4187,
  "melidir": 6361,
  "melik": 7528,
  "melisin": 37767,
  "melisiniz": 8760,
  "meliyat": 14586,
  "meliyim": 26548,
  "meliyiz": 12387,
  "mem": 1840,
  "meme": 16097,
  "memek": 8413,
  "memekte": 45598,
  "memektedir": 11180,
  "memeleri": 35199,
  "memeli": 25271,
  "memelidir": 25576,
  "memesi": 6896,
  "memesine": 42036,
  "memesini": 43672,
  "memeye": 29771,
  "memi": 28333,
  "memiz": 8559,
  "memize": 26531,
  "memizi": 26297,
  "memiÅŁ": 4406,
  "memiÅŁti": 17386,
  "memiÅŁtim": 43924,
  "memiÅŁtir": 13002,
  "men": 709,
  "mene": 27873,
  "meni": 4496,
  "menin": 2471,
  "menistan": 30257,
  "meniz": 2878,
  "menize": 8227,
  "menizi": 6555,
  "menizin": 37254,
  "menler": 33641,
  "ment": 5494,
  "mente": 44155,
  "ments": 13979,
  "mer": 1456,
  "merce": 39056,
  "merge": 49874,
  "merhaba": 25287,
  "merkez": 29198,
  "mers": 47982,
  "mes": 8034,
  "mesaj": 48697,
  "mese": 20591,
  "mesi": 841,
  "mesidir": 22458,
  "mesin": 10692,
  "mesinde": 5534,
  "mesindeki": 41724,
  "mesinden": 7610,
  "mesine": 2473,
  "mesini": 2357,
  "mesinin": 4627,
  "mesiyle": 5535,
  "met": 618,
  "metik": 9680,
  "metli": 49714,
  "mettin": 27955,
  "mev": 34055,
  "mey": 2462,
  "meye": 1092,
  "meyebilir": 27320,
  "meyecek": 6164,
  "meyecektir": 21039,
  "meyeceÄŁi": 22888,
  "meyeceÄŁim": 34020,
  "meyeceÄŁine": 49999,
  "meyeceÄŁini": 19160,
  "meyeceÄŁiz": 29428,
  "meyelim": 28663,
  "meyen": 2616,
  "meyenler": 31947,
  "meyerek": 36165,
  "meyi": 2171,
  "meyin": 6725,
  "meyince": 36521,
  "meyiniz": 47546,
  "meyip": 25383,
  "meyiz": 32633,
  "meyle": 18407,
  "mez": 1573,
  "mezdi": 42407,
  "mezler": 21283,
  "mezse": 24135,
  "meÄŁe": 44976,
  "meÅŁ": 49218,
  "mg": 32536,
  "mi": 1236,
  "mic": 28160,
  "microsoft": 47945,
  "mid": 44988,
  "mik": 9379,
  "mil": 10785,
  "mill": 39422,
  "millet": 44287,
  "milli": 42996,
  "mim": 48232,
  "min": 1425,
  "minde": 27683,
  "mine": 13333,
  "ming": 36357,
  "mini": 7099,
  "minin": 11507,
  "mir": 1858,
  "mis": 7899,
  "misiniz": 30908,
  "mistir": 46113,
  "mit": 4983,
  "mith": 20150,
  "miy": 34140,
  "miye": 21747,
  "miyim": 35411,
  "miyor": 2934,
  "miyordu": 23107,
  "miyorlar": 34857,
  "miyorsa": 49971,
  "miyorum": 12141,
  "miyoruz": 20516,
  "miz": 35251,
  "miÅŁ": 631,
  "miÅŁler": 19446,
  "miÅŁlerdi": 44908,
  "miÅŁlerdir": 18160,
  "miÅŁti": 2828,
  "miÅŁtik": 24110,
  "miÅŁtim": 15685,
  "miÅŁtir": 1670,
  "ml": 8018,
  "mlek": 23324,
  "mm": 4913,
  "mn": 40500,
  "mo": 13703,
  "mobil": 29395,
  "mod": 12539,
  "model": 40570,
  "modern": 26202,
  "mon": 9521,
  "mond": 31208,
  "moni": 41923,
  "mor": 34548,
  "mork": 47943,
  "mos": 7322,
  "mosfer": 43352,
  "mp": 6760,
  "mr": 6366,
  "ms": 11429,
  "mt": 39200,
  "mu": 8736,
  "muar": 32206,
  "mud": 19785,
  "muh": 33459,
  "muht": 42652,
  "mun": 12913,
  "mund": 26914,
  "mur": 4175,
  "mus": 10052,
  "musunuz": 43392,
  "mut": 4735,
  "muyor": 6331,
  "muyordu": 36696,
  "muyorum": 24044,
  "muyoruz": 31925,
  "muz": 5868,
  "muÅŁ": 1326,
  "muÅŁtu": 6413,
  "muÅŁtur": 3238,
  "muÅŁum": 49712,
  "my": 13158,
  "mÃ¢": 27514,
  "mÃ¢n": 26868,
  "mÃ®": 11678,
  "mÃ¼": 14331,
  "mÃ¼n": 19621,
  "mÃ¼r": 3751,
  "mÃ¼yor": 8999,
  "mÃ¼z": 26435,
  "mÃ¼ÅŁ": 1930,
  "mÃ¼ÅŁter": 48320,
  "mÃ¼ÅŁtÃ¼": 10869,
  "mÃ¼ÅŁtÃ¼r": 5693,
  "mÄ": 6090,
  "mÄ±": 6110,
  "mÄ±s": 27886,
  "mÄ±yor": 3379,
  "mÄ±yordu": 19815,
  "mÄ±yorlar": 24602,
  "mÄ±yorsa": 42707,
  "mÄ±yorum": 9235,
  "mÄ±yoruz": 19769,
  "mÄ±z": 10479,
  "mÄ±zÄ±": 3475,
  "mÄ±zÄ±lÄ±": 16452,
  "mÄ±Ä¢": 49944,
  "mÄ±ÅŁ": 562,
  "mÄ±ÅŁlar": 13808,
  "mÄ±ÅŁlardÄ±": 29951,
  "mÄ±ÅŁlardÄ±r": 21274,
  "mÄ±ÅŁtÄ±": 2597,
  "mÄ±ÅŁtÄ±k": 26985,
  "mÄ±ÅŁtÄ±m": 15475,
  "mÄ±ÅŁtÄ±r": 1255,
  "mÄ±ÅŁÄ±m": 32387,
  "n": 78,
  "na": 1148,
  "naf": 10534,
  "nak": 1315,
  "nal": 11529,
  "nam": 3953,
  "name": 8133,
  "namesi": 18289,
  "nan": 5722,
  "nar": 21974,
  "nas": 28648,
  "nastik": 30961,
  "nasÄ±l": 29338,
  "nat": 17150,
  "nav": 10354,
  "navut": 12748,
  "naz": 17051,
  "nb": 31241,
  "nc": 34788,
  "nca": 22508,
  "nce": 24103,
  "nci": 11320,
  "ncÄ±": 28762,
  "nd": 38763,
  "nda": 1967,
  "ndaki": 9195,
  "ndan": 4267,
  "nde": 1641,
  "ndeki": 7424,
  "nden": 4402,
  "ne": 1089,
  "nec": 44332,
  "ned": 15974,
  "neden": 25503,
  "nef": 35869,
  "nek": 1661,
  "nel": 13988,
  "neler": 40978,
  "nelerin": 46764,
  "neli": 35188,
  "nem": 21426,
  "nen": 17281,
  "nenin": 46321,
  "ner": 4907,
  "neri": 48766,
  "ners": 42552,
  "nes": 13344,
  "nesi": 17065,
  "ness": 11602,
  "net": 1140,
  "nev": 46864,
  "new": 44355,
  "news": 21811,
  "ney": 10437,
  "neye": 47280,
  "nez": 19263,
  "nezyum": 23536,
  "neÄŁin": 2819,
  "ng": 24896,
  "ni": 2040,
  "nia": 21205,
  "nie": 27243,
  "nif": 39563,
  "nik": 4524,
  "nin": 702,
  "ning": 12216,
  "nis": 24595,
  "nit": 18529,
  "nite": 47191,
  "niyet": 3391,
  "niyeti": 33305,
  "niz": 17266,
  "nizi": 46229,
  "nizon": 36846,
  "nm": 23511,
  "nn": 15817,
  "no": 15155,
  "noloji": 26946,
  "non": 39048,
  "normal": 36561,
  "nos": 33389,
  "not": 14077,
  "nov": 46256,
  "nova": 21059,
  "now": 16770,
  "noz": 28646,
  "ns": 27111,
  "nt": 34771,
  "nu": 5336,
  "num": 33460,
  "nun": 1184,
  "nur": 15208,
  "nut": 22009,
  "nuv": 6927,
  "ny": 14453,
  "nz": 45362,
  "nÃ¢": 23864,
  "nÃ¢me": 46841,
  "nÃ®": 34409,
  "nÃ¶": 31702,
  "nÃ¼": 8844,
  "nÃ¼n": 5315,
  "nÄ": 879,
  "nÄ±": 880,
  "nÄ±n": 887,
  "nÄ±z": 2023,
  "o": 79,
  "oT": 38415,
  "oa": 44144,
  "ob": 869,
  "oba": 18603,
  "obahis": 33016,
  "oban": 12063,
  "obb": 31905,
  "obbing": 46940,
  "obe": 18610,
  "obel": 19038,
  "ober": 35557,
  "obet": 7778,
  "obi": 9915,
  "obik": 25870,
  "obil": 1523,
  "obili": 22238,
  "obo": 45492,
  "obot": 5207,
  "obra": 45845,
  "obs": 30740,
  "obu": 47550,
  "obÃ¼s": 4867,
  "oc": 693,
  "oca": 4151,
  "ocak": 46533,
  "ocal": 26094,
  "ocam": 11462,
  "och": 19029,
  "oci": 10475,
  "ocial": 19304,
  "ock": 4508,
  "ockchain": 13730,
  "ocket": 27501,
  "oco": 38679,
  "ocol": 43282,
  "ocu": 21066,
  "ocuk": 984,
  "ocum": 31003,
  "ocument": 41085,
  "ocus": 33615,
  "ocuÄŁ": 8687,
  "ocuÄŁu": 37422,
  "od": 781,
  "oda": 3448,
  "odafone": 11409,
  "odal": 34075,
  "oday": 30638,
  "odcast": 29144,
  "ode": 34949,
  "oder": 31435,
  "odge": 47931,
  "odi": 31399,
  "odik": 14540,
  "odin": 32923,
  "odo": 42242,
  "odoks": 26089,
  "odon": 27614,
  "odonti": 48250,
  "odor": 27385,
  "odos": 32797,
  "odrum": 6005,
  "ods": 43223,
  "odu": 9699,
  "odur": 25864,
  "ody": 14890,
  "odyum": 17665,
  "oe": 18973,
  "of": 1770,
  "ofaÅŁ": 42174,
  "off": 11020,
  "offee": 45600,
  "office": 39179,
  "ofil": 44670,
  "ofman": 40654,
  "oft": 4958,
  "oftware": 29088,
  "ofya": 13922,
  "og": 1072,
  "oga": 14852,
  "ogan": 45408,
  "ogar": 31406,
  "ogaz": 41309,
  "ogen": 34710,
  "ogle": 3041,
  "oglob": 45136,
  "oglu": 24187,
  "ogo": 42332,
  "ograf": 6267,
  "ografi": 11209,
  "ografik": 16432,
  "ografisi": 25039,
  "ogram": 13321,
  "ograp": 25916,
  "ography": 47168,
  "ogu": 42343,
  "oh": 1506,
  "oha": 41406,
  "ohbet": 2164,
  "ohen": 47293,
  "ohn": 6903,
  "ohum": 22292,
  "ohut": 24381,
  "oi": 36413,
  "oid": 7946,
  "oin": 5181,
  "oint": 16338,
  "ois": 41800,
  "oit": 30421,
  "oj": 4445,
  "ojen": 12502,
  "ojenik": 36455,
  "oji": 27526,
  "ojistik": 10019,
  "ok": 360,
  "oka": 36753,
  "okado": 38270,
  "okal": 20338,
  "okar": 48675,
  "oke": 31099,
  "okent": 47591,
  "oker": 3880,
  "okim": 25640,
  "okimya": 41548,
  "okimyasal": 48059,
  "okin": 44333,
  "oko": 40864,
  "okol": 6166,
  "okr": 2264,
  "okrat": 38355,
  "okrates": 48005,
  "okrin": 41626,
  "oks": 7827,
  "oksi": 12685,
  "oksidan": 16157,
  "oksit": 16049,
  "okt": 1288,
  "okteyl": 26459,
  "oktor": 2552,
  "oktorum": 27832,
  "oku": 17327,
  "okul": 5305,
  "okulu": 6928,
  "ol": 350,
  "ola": 6185,
  "olak": 21419,
  "olama": 18557,
  "olan": 17069,
  "olar": 5514,
  "olarak": 27744,
  "olarÄ±": 14391,
  "olas": 29038,
  "olay": 46807,
  "old": 6484,
  "oldova": 39926,
  "oldu": 42798,
  "ole": 6201,
  "olet": 28537,
  "oley": 10656,
  "oleybol": 11107,
  "olf": 19754,
  "oli": 5121,
  "oliberal": 43041,
  "olid": 29823,
  "oliday": 44451,
  "olide": 38848,
  "olik": 9286,
  "olin": 41888,
  "olitik": 33586,
  "oliv": 46813,
  "oll": 43602,
  "olla": 24519,
  "ollaoÄŁlu": 37895,
  "oller": 46588,
  "oln": 43985,
  "olo": 929,
  "olog": 5065,
  "ological": 43871,
  "ologlar": 29256,
  "ologna": 49516,
  "ology": 15421,
  "oloj": 999,
  "oloji": 1797,
  "olojide": 38929,
  "olojik": 2429,
  "olojinin": 18345,
  "olojisi": 8866,
  "olojiye": 40093,
  "olos": 11398,
  "olosu": 46958,
  "olsun": 21137,
  "olt": 41597,
  "olte": 43397,
  "olu": 1459,
  "oluk": 16439,
  "olun": 28735,
  "olur": 34551,
  "olution": 26073,
  "om": 478,
  "oma": 5048,
  "omal": 41299,
  "oman": 3587,
  "omanyetik": 32877,
  "omas": 15692,
  "omat": 27739,
  "omb": 4595,
  "ombala": 27627,
  "omberg": 26169,
  "ombi": 38277,
  "ome": 5685,
  "omen": 12059,
  "oment": 23177,
  "omer": 23823,
  "omet": 5257,
  "ometr": 9279,
  "ometre": 7264,
  "ometri": 25617,
  "ometrik": 18909,
  "omi": 9732,
  "omik": 38501,
  "ominal": 23996,
  "omo": 5400,
  "omon": 28179,
  "omotif": 30300,
  "omotiv": 14842,
  "omp": 5168,
  "omu": 39913,
  "omutan": 50111,
  "omuz": 20997,
  "on": 301,
  "ona": 3615,
  "onav": 4117,
  "onavir": 15139,
  "onavirus": 47199,
  "onavirÃ¼s": 4629,
  "onbet": 47958,
  "onca": 23797,
  "ond": 4240,
  "onda": 27062,
  "onder": 23755,
  "ondo": 37590,
  "ondu": 37308,
  "one": 2408,
  "oner": 33143,
  "ones": 35695,
  "onez": 42534,
  "ong": 5619,
  "ongul": 8966,
  "onguldak": 8998,
  "oni": 17778,
  "onik": 7371,
  "onim": 12057,
  "onk": 26359,
  "onlar": 9506,
  "onlarÄ±": 27363,
  "onlarÄ±n": 32002,
  "online": 20033,
  "onlu": 26486,
  "onna": 45402,
  "onom": 1291,
  "onomi": 8205,
  "onomik": 10018,
  "ons": 2297,
  "onser": 24185,
  "onservis": 31823,
  "onso": 49840,
  "onsor": 8946,
  "onspor": 6122,
  "ont": 12830,
  "onto": 33310,
  "onu": 2506,
  "onun": 5949,
  "onuz": 49250,
  "onuzu": 46294,
  "ony": 11654,
  "onya": 3720,
  "oo": 6393,
  "ood": 5960,
  "oody": 45734,
  "oogle": 3136,
  "ook": 2330,
  "ool": 13423,
  "oom": 16283,
  "oon": 34160,
  "oooo": 35753,
  "oot": 8029,
  "ootball": 43607,
  "ooth": 14363,
  "op": 514,
  "opa": 17451,
  "opar": 13258,
  "opark": 22761,
  "oparl": 16633,
  "oparlÃ¶r": 19185,
  "opat": 24203,
  "opay": 26114,
  "opayz": 29942,
  "ope": 14407,
  "opean": 35009,
  "open": 40400,
  "oper": 6862,
  "operatif": 9303,
  "oph": 29178,
  "opher": 41741,
  "opi": 15133,
  "opik": 21304,
  "ople": 28416,
  "opol": 14328,
  "opolis": 47712,
  "opolitik": 27461,
  "opot": 28146,
  "opotamya": 30800,
  "opoz": 30034,
  "ops": 39906,
  "opsi": 46705,
  "option": 30272,
  "opu": 45063,
  "opy": 34781,
  "opya": 25817,
  "opyr": 22879,
  "opyright": 23071,
  "or": 293,
  "ora": 10350,
  "oral": 43657,
  "orama": 49103,
  "oramik": 34232,
  "ord": 3336,
  "ordan": 34980,
  "order": 46088,
  "ordin": 5659,
  "ordine": 33446,
  "ordo": 26855,
  "ordon": 29442,
  "ordu": 16310,
  "ore": 1268,
  "oreign": 41649,
  "ores": 46260,
  "orex": 1603,
  "orf": 22207,
  "org": 5518,
  "organ": 14093,
  "organik": 42736,
  "orge": 13178,
  "ori": 4937,
  "oria": 49262,
  "orial": 38113,
  "orida": 33856,
  "ories": 39938,
  "orik": 42026,
  "orit": 7817,
  "ork": 2721,
  "orking": 38553,
  "orld": 8993,
  "orm": 1000,
  "ormal": 2527,
  "ormon": 47364,
  "ormuÅŁ": 31524,
  "orn": 12002,
  "oroloji": 15654,
  "oroz": 44204,
  "ors": 15379,
  "ort": 1648,
  "orta": 5032,
  "ortak": 47768,
  "ortal": 17824,
  "orth": 19005,
  "ortis": 27518,
  "ortmund": 34152,
  "orton": 49594,
  "orum": 783,
  "oruma": 43123,
  "ory": 10360,
  "os": 579,
  "osa": 12311,
  "osan": 33716,
  "ose": 24388,
  "osh": 16854,
  "oshi": 31395,
  "osis": 41712,
  "osistem": 14758,
  "osit": 15655,
  "osk": 6242,
  "oskoca": 32251,
  "oskop": 39558,
  "oskopi": 36607,
  "oskopik": 39492,
  "oskova": 10128,
  "oslav": 28982,
  "osman": 15171,
  "osmanoÄŁlu": 32401,
  "osmanpaÅŁa": 29433,
  "osna": 22423,
  "osp": 29159,
  "ospital": 37012,
  "oss": 11834,
  "ost": 1208,
  "osta": 2970,
  "ostal": 19646,
  "oster": 29732,
  "osteron": 50027,
  "osting": 15525,
  "oston": 26984,
  "ostÃ¼m": 21021,
  "osu": 2764,
  "osun": 11868,
  "osuna": 15314,
  "osunda": 16022,
  "osundan": 32812,
  "osunu": 11247,
  "osunun": 15871,
  "osuyla": 37382,
  "osy": 9744,
  "osya": 12819,
  "osyal": 1251,
  "osyon": 6117,
  "ot": 654,
  "ota": 9055,
  "otaj": 37086,
  "otal": 17871,
  "ote": 19897,
  "otek": 15756,
  "oteknoloji": 39475,
  "otel": 4879,
  "oteles": 44426,
  "oten": 43546,
  "oter": 8715,
  "oterap": 31141,
  "oterapi": 17012,
  "otermal": 30911,
  "oth": 30656,
  "other": 33873,
  "otik": 7189,
  "otin": 30267,
  "otlar": 49842,
  "oto": 5326,
  "otobet": 40105,
  "otok": 29822,
  "otom": 30137,
  "oton": 23392,
  "otor": 2669,
  "otos": 6653,
  "otoshop": 27618,
  "otosiklet": 8769,
  "otoÄŁraf": 1911,
  "ott": 12679,
  "otu": 17089,
  "otur": 40660,
  "ou": 2952,
  "ouch": 20096,
  "oug": 17115,
  "ough": 32126,
  "ought": 43166,
  "oul": 14436,
  "ould": 38966,
  "ound": 13263,
  "our": 3707,
  "ource": 28184,
  "ournal": 15213,
  "ours": 35545,
  "ous": 6224,
  "ouse": 13535,
  "ouston": 47972,
  "out": 4752,
  "outer": 44303,
  "outh": 19952,
  "outube": 9137,
  "ov": 1123,
  "ova": 2955,
  "ovac": 47700,
  "ovan": 35491,
  "ovaskÃ¼ler": 40373,
  "ovasyon": 13880,
  "ovasÄ±": 37822,
  "ovatif": 36465,
  "ove": 12432,
  "over": 10322,
  "overy": 31818,
  "ovic": 19126,
  "ovid": 5021,
  "ovision": 37721,
  "oviÃ§": 25447,
  "ovo": 22087,
  "ow": 1697,
  "ower": 8890,
  "own": 7348,
  "ownload": 17114,
  "ows": 4253,
  "owski": 37921,
  "ox": 6922,
  "oy": 642,
  "oya": 5129,
  "oyan": 48856,
  "oyd": 35320,
  "oyla": 25733,
  "oyn": 45475,
  "oyol": 21768,
  "oyolu": 30359,
  "oyraz": 24813,
  "oyu": 4884,
  "oyun": 12530,
  "oz": 825,
  "oza": 12194,
  "ozaik": 28017,
  "ozan": 17561,
  "ozet": 25402,
  "ozgat": 11702,
  "ozisyon": 14418,
  "ozit": 11642,
  "ozof": 17183,
  "ozom": 26111,
  "ozor": 39226,
  "ozu": 18944,
  "ozyon": 26559,
  "oÃ§": 10347,
  "oÄŁ": 438,
  "oÄŁa": 19963,
  "oÄŁan": 1587,
  "oÄŁaz": 19214,
  "oÄŁl": 40685,
  "oÄŁlan": 23875,
  "oÄŁlu": 1260,
  "oÄŁlunun": 24311,
  "oÄŁol": 18208,
  "oÄŁraf": 1631,
  "oÄŁu": 1640,
  "oÄŁuk": 10805,
  "oÄŁul": 28101,
  "oÄŁullarÄ±": 19579,
  "oÄŁun": 1685,
  "oÄŁurt": 30407,
  "oÄŁuÅŁ": 33263,
  "oÅŁ": 921,
  "p": 80,
  "pa": 7239,
  "pad": 47239,
  "pagan": 19385,
  "page": 49397,
  "pak": 46583,
  "paket": 38007,
  "pal": 24503,
  "pan": 1788,
  "panak": 29513,
  "pansiyon": 33411,
  "pany": 2930,
  "panya": 4268,
  "panyol": 10668,
  "par": 3120,
  "para": 17146,
  "parator": 5864,
  "pare": 45846,
  "park": 21165,
  "parmak": 33309,
  "parslan": 23468,
  "part": 23513,
  "parta": 9762,
  "pas": 12943,
  "pass": 38199,
  "pat": 7301,
  "pati": 18572,
  "patik": 28775,
  "pay": 26862,
  "paz": 10056,
  "pazar": 31307,
  "pazarÄ±": 14561,
  "paÃ±": 36672,
  "paÃ±ol": 41694,
  "paÅŁ": 38519,
  "paÅŁa": 6169,
  "pdf": 28098,
  "pe": 6102,
  "ped": 40881,
  "peed": 48547,
  "pek": 3861,
  "pektif": 15739,
  "pen": 20122,
  "pendent": 46564,
  "per": 2735,
  "perde": 47970,
  "perest": 36253,
  "peri": 15091,
  "peria": 28656,
  "perience": 34449,
  "perm": 23314,
  "permalink": 43896,
  "pers": 31136,
  "persky": 44480,
  "pert": 33416,
  "pertiz": 24122,
  "perver": 28853,
  "peryal": 9531,
  "pet": 25248,
  "pg": 15329,
  "ph": 6630,
  "phone": 32379,
  "php": 19283,
  "phy": 48470,
  "pi": 15544,
  "pik": 14518,
  "pil": 20655,
  "pin": 25684,
  "ping": 20484,
  "pir": 14506,
  "pit": 2359,
  "piyat": 10270,
  "pl": 20106,
  "plan": 42208,
  "plant": 37606,
  "play": 19061,
  "ple": 27686,
  "pm": 38078,
  "png": 41527,
  "po": 8486,
  "point": 41220,
  "pol": 12107,
  "polat": 38487,
  "polis": 36140,
  "politik": 42800,
  "pon": 16154,
  "pons": 35264,
  "pool": 19075,
  "pop": 34914,
  "por": 866,
  "port": 10817,
  "portaj": 8340,
  "portan": 40462,
  "portant": 48011,
  "pos": 26485,
  "post": 12190,
  "posta": 4261,
  "pot": 18142,
  "poz": 10345,
  "pozyum": 21501,
  "pozyumu": 26244,
  "pp": 3266,
  "pple": 5116,
  "ppo": 37902,
  "pr": 1919,
  "pres": 28685,
  "press": 9026,
  "prise": 41252,
  "priz": 7406,
  "prizi": 37465,
  "pro": 9488,
  "program": 43946,
  "prÃ¼": 17764,
  "ps": 8777,
  "psik": 36174,
  "pss": 35719,
  "pt": 4757,
  "pto": 35938,
  "ptom": 11644,
  "pu": 38088,
  "puan": 39877,
  "pus": 32109,
  "put": 30757,
  "puz": 22913,
  "px": 34127,
  "py": 39909,
  "pÄ±nar": 9038,
  "q": 81,
  "ql": 35572,
  "qu": 3893,
  "quar": 28791,
  "quare": 34210,
  "que": 10551,
  "ques": 30982,
  "quest": 47088,
  "quid": 48902,
  "quir": 42816,
  "r": 82,
  "ra": 557,
  "rab": 19264,
  "rac": 3192,
  "racat": 4202,
  "race": 41837,
  "racÄ±": 48734,
  "rad": 17467,
  "rada": 6804,
  "rade": 7252,
  "raf": 934,
  "rafik": 2543,
  "raft": 15726,
  "rag": 5364,
  "ragon": 16057,
  "rah": 4247,
  "raham": 46481,
  "rahim": 36205,
  "rahman": 17633,
  "rail": 3787,
  "rain": 30292,
  "raj": 11055,
  "rak": 1293,
  "raksiyon": 39968,
  "ral": 5620,
  "ralar": 37497,
  "ralya": 9660,
  "ralÄ±": 27368,
  "ram": 774,
  "rama": 13008,
  "raman": 3956,
  "ramanÄ±": 22017,
  "rame": 25245,
  "ramework": 44540,
  "ramp": 34503,
  "ran": 884,
  "ranbolu": 29802,
  "rand": 9047,
  "raniye": 18546,
  "rans": 1578,
  "rant": 39057,
  "ranÃ§": 16971,
  "ranÄ±": 10634,
  "ranÄ±n": 15066,
  "ranÄ±ÅŁ": 19805,
  "rap": 13364,
  "rar": 1421,
  "rara": 32319,
  "rari": 27759,
  "rary": 49946,
  "rarÄ±": 17330,
  "ras": 11567,
  "rasya": 22530,
  "rasÄ±": 16757,
  "rat": 6104,
  "raw": 22148,
  "ray": 4358,
  "raz": 7113,
  "razam": 35760,
  "raÃ§": 8218,
  "raÄŁÄ±": 17649,
  "raÄŁÄ±n": 42049,
  "rc": 33994,
  "rd": 13759,
  "re": 888,
  "read": 11749,
  "reak": 26333,
  "real": 32764,
  "ream": 16688,
  "reas": 25964,
  "reasyon": 39673,
  "reat": 16681,
  "reative": 42691,
  "reb": 31745,
  "rec": 35976,
  "red": 4090,
  "reddin": 29906,
  "rede": 43560,
  "reden": 29701,
  "ree": 9099,
  "reen": 23176,
  "ref": 12555,
  "refour": 43981,
  "rek": 3259,
  "rekans": 12666,
  "rel": 32441,
  "reli": 37215,
  "rem": 3582,
  "remi": 38918,
  "remit": 22483,
  "ren": 1809,
  "rena": 48414,
  "renaj": 36315,
  "rence": 45943,
  "rency": 40357,
  "reni": 23423,
  "renin": 33319,
  "renk": 26374,
  "rens": 5428,
  "rensi": 40272,
  "rent": 18087,
  "rep": 17438,
  "res": 1366,
  "resel": 11244,
  "resh": 39702,
  "resi": 2719,
  "resim": 31609,
  "resinden": 32573,
  "resiyle": 49108,
  "resiz": 35776,
  "ress": 4929,
  "rest": 47196,
  "resyon": 8901,
  "ret": 889,
  "reti": 39172,
  "rettin": 11286,
  "rev": 25476,
  "rew": 41387,
  "rey": 15672,
  "reyn": 33365,
  "ri": 1352,
  "ria": 31814,
  "rian": 21925,
  "rib": 10690,
  "ribÃ¼t": 29340,
  "ric": 18959,
  "rice": 19086,
  "rich": 45735,
  "rick": 25122,
  "rid": 8047,
  "rie": 34490,
  "ried": 43532,
  "riend": 47595,
  "rier": 45446,
  "rif": 26604,
  "rig": 28844,
  "right": 33429,
  "rik": 1519,
  "rika": 4389,
  "rikler": 31671,
  "ril": 28266,
  "rilik": 35367,
  "rim": 1728,
  "rime": 44065,
  "rimenkul": 7591,
  "rin": 3709,
  "rine": 41099,
  "rini": 31536,
  "rio": 43626,
  "rip": 6686,
  "ript": 13181,
  "ripti": 42243,
  "rir": 34945,
  "ris": 5452,
  "risi": 49129,
  "risinek": 38830,
  "rist": 7458,
  "ristiyan": 45365,
  "rit": 7434,
  "rite": 42917,
  "rix": 21314,
  "riy": 43539,
  "riyat": 23409,
  "riye": 17596,
  "riyet": 6436,
  "riyeti": 45418,
  "riz": 18456,
  "riÄŁi": 43723,
  "ro": 492,
  "road": 40447,
  "rob": 49690,
  "roen": 49967,
  "rof": 24843,
  "rog": 30550,
  "roid": 4204,
  "rojen": 15135,
  "rok": 24367,
  "rol": 5586,
  "role": 30129,
  "rolik": 24098,
  "roll": 39568,
  "rolu": 33437,
  "rom": 3777,
  "rome": 16206,
  "ron": 1934,
  "rone": 22353,
  "rones": 40941,
  "rong": 38074,
  "ronik": 3697,
  "ront": 39491,
  "ronun": 24317,
  "room": 30452,
  "rop": 4811,
  "ropay": 33462,
  "ropol": 15778,
  "ror": 26680,
  "ros": 3122,
  "rosk": 22690,
  "rosoft": 6466,
  "ross": 16662,
  "rost": 28422,
  "rot": 25261,
  "rough": 30780,
  "round": 15299,
  "roup": 12120,
  "route": 42427,
  "rov": 17898,
  "row": 8464,
  "rown": 22246,
  "rowser": 25224,
  "roz": 18948,
  "rr": 19536,
  "rt": 44486,
  "ru": 619,
  "ruc": 17240,
  "ruf": 5170,
  "ruh": 22619,
  "ruk": 5953,
  "ruklu": 14467,
  "rul": 11691,
  "rulan": 42240,
  "rullah": 39313,
  "rum": 4209,
  "run": 21409,
  "rup": 1095,
  "rupa": 1655,
  "rus": 38909,
  "rusu": 19278,
  "rut": 11105,
  "rutiyet": 36296,
  "ruvaz": 43428,
  "ruz": 14361,
  "ruÃ§": 21041,
  "ruÄŁ": 21721,
  "ruÄŁu": 26066,
  "ry": 4182,
  "rypt": 37680,
  "rÃ¢": 27712,
  "rÃ®": 22986,
  "rÃ¼": 12332,
  "rÃ¼b": 3605,
  "rÄ": 860,
  "rÄ±": 861,
  "rÄ±ca": 1310,
  "rÄ±m": 41833,
  "rÄ±n": 22047,
  "rÄ±na": 45851,
  "rÄ±nÄ±": 28858,
  "s": 83,
  "sa": 649,
  "saat": 22249,
  "sab": 47105,
  "sad": 49022,
  "sada": 18119,
  "sade": 23399,
  "sadece": 25107,
  "saf": 33685,
  "sag": 38659,
  "sage": 29714,
  "sah": 13633,
  "sahip": 47687,
  "sak": 2781,
  "saki": 32826,
  "sal": 1338,
  "salar": 11131,
  "sallah": 49283,
  "salÄ±": 41868,
  "sam": 1312,
  "sama": 38571,
  "san": 581,
  "sana": 25354,
  "sanat": 30711,
  "sancak": 34544,
  "sane": 22522,
  "saniz": 37981,
  "sansÃ¶r": 21639,
  "sanÄ±": 23333,
  "sanÄ±n": 22993,
  "sanÄ±z": 1475,
  "sar": 6503,
  "saray": 11630,
  "sarÄ±": 40257,
  "sas": 3655,
  "saspor": 11690,
  "sat": 4470,
  "satÄ±": 27161,
  "satÄ±m": 26954,
  "satÄ±ÅŁ": 47021,
  "sav": 7470,
  "savaÅŁ": 37966,
  "say": 3480,
  "saydÄ±": 23369,
  "sayfa": 46237,
  "sayÄ±": 23950,
  "sayÄ±lan": 41077,
  "sayÄ±sÄ±": 36356,
  "saÃ§": 36947,
  "saÄŁ": 11015,
  "saÄŁlÄ±k": 34859,
  "saÄŁlÄ±ÄŁÄ±": 22434,
  "sb": 48987,
  "sburg": 44419,
  "sc": 10765,
  "sch": 11993,
  "sche": 19662,
  "se": 513,
  "sea": 22605,
  "sec": 44459,
  "sed": 7060,
  "sede": 11909,
  "sedÃ¼r": 9616,
  "sef": 5327,
  "sefi": 23396,
  "sek": 967,
  "sekiz": 46188,
  "sel": 746,
  "selam": 19706,
  "seldorf": 48269,
  "selen": 21009,
  "seler": 16260,
  "self": 43293,
  "seli": 29392,
  "sell": 38905,
  "sellik": 43423,
  "selona": 29891,
  "selÃ¢m": 25050,
  "sem": 5069,
  "semburg": 36400,
  "sen": 2722,
  "senal": 27681,
  "sene": 43045,
  "senger": 23917,
  "seni": 48871,
  "senin": 18068,
  "seniz": 3216,
  "sense": 31913,
  "sep": 21394,
  "sepeti": 39653,
  "sept": 46379,
  "ser": 2802,
  "seri": 5107,
  "serispor": 18163,
  "sert": 40005,
  "ses": 6899,
  "sesi": 41720,
  "set": 8979,
  "sev": 10065,
  "sever": 9800,
  "severler": 31125,
  "severlerin": 36593,
  "sey": 5555,
  "seydi": 19582,
  "seydik": 45715,
  "seydim": 37015,
  "seyerek": 25607,
  "seÃ§": 25574,
  "sh": 6476,
  "ship": 47363,
  "shire": 42826,
  "shirt": 28703,
  "shop": 26784,
  "show": 48128,
  "si": 1068,
  "sia": 22411,
  "sian": 41443,
  "sib": 18137,
  "siburada": 24157,
  "sid": 34510,
  "side": 29575,
  "sif": 35385,
  "sig": 28485,
  "sijen": 43579,
  "sik": 1638,
  "siklop": 19371,
  "sil": 1812,
  "silah": 39645,
  "silya": 36590,
  "sim": 3027,
  "simum": 7097,
  "sin": 1416,
  "sinde": 6943,
  "sindeki": 29273,
  "sinden": 17243,
  "sine": 6099,
  "sini": 4309,
  "sinin": 5278,
  "siniz": 712,
  "sinizdir": 46403,
  "sinki": 41872,
  "sinler": 18744,
  "sion": 12001,
  "sional": 37502,
  "sions": 47304,
  "sir": 13044,
  "siri": 38100,
  "sis": 7194,
  "sistem": 37107,
  "sit": 4533,
  "site": 13842,
  "sitesi": 37386,
  "siy": 2618,
  "siyah": 27372,
  "siyas": 27402,
  "siye": 3145,
  "siyel": 36529,
  "siyesi": 17490,
  "siyet": 5807,
  "siyle": 14687,
  "siyon": 1214,
  "siyum": 13937,
  "siz": 920,
  "sizce": 21365,
  "sizdir": 48849,
  "size": 36711,
  "sizin": 10398,
  "sizler": 43569,
  "sizlik": 3903,
  "sizliÄŁe": 32811,
  "sizliÄŁi": 20115,
  "sizliÄŁin": 29764,
  "sizm": 41073,
  "sk": 6199,
  "ska": 39648,
  "ski": 12764,
  "skiy": 44653,
  "sky": 18846,
  "skÃ¼p": 39344,
  "slan": 6861,
  "sm": 24732,
  "sman": 2033,
  "sn": 17739,
  "so": 14263,
  "sohbet": 40391,
  "sok": 47883,
  "sol": 17354,
  "son": 3289,
  "sonra": 32739,
  "sonu": 43605,
  "sonuÃ§": 43801,
  "sor": 12415,
  "sos": 46692,
  "sosyal": 21814,
  "soy": 6247,
  "sp": 7608,
  "span": 20449,
  "spor": 3251,
  "spot": 25479,
  "spres": 32755,
  "sputnik": 45061,
  "sputniknews": 45975,
  "ss": 16926,
  "st": 359,
  "sta": 2692,
  "stad": 49918,
  "stafa": 2623,
  "stagram": 4311,
  "stal": 27638,
  "stan": 1070,
  "stana": 40533,
  "stanbul": 1127,
  "stand": 38371,
  "stane": 47749,
  "stant": 44541,
  "stantin": 27654,
  "star": 21954,
  "stat": 18506,
  "station": 38062,
  "ste": 8080,
  "stein": 17181,
  "stem": 13673,
  "sten": 15199,
  "ster": 761,
  "sterdam": 21867,
  "steri": 12960,
  "stil": 9002,
  "stir": 47573,
  "stit": 5835,
  "ston": 21423,
  "stone": 36030,
  "store": 47705,
  "stos": 2644,
  "str": 5298,
  "stra": 7036,
  "strojen": 43283,
  "strong": 44944,
  "struc": 32630,
  "strÃ¼k": 21103,
  "strÃ¼ksiyon": 25388,
  "stur": 16410,
  "style": 35539,
  "stÃ¼r": 34762,
  "stÄ": 39820,
  "stÄ±": 40056,
  "stÄ±r": 21461,
  "su": 2538,
  "sub": 13062,
  "subay": 20891,
  "subishi": 40874,
  "sul": 5370,
  "sultan": 35496,
  "sum": 47758,
  "sun": 833,
  "sundan": 41120,
  "sunlar": 36729,
  "sunu": 49133,
  "sunuz": 1711,
  "sunuzdur": 41663,
  "sup": 25605,
  "sur": 4119,
  "suru": 15951,
  "sus": 10215,
  "suyu": 37980,
  "suz": 1483,
  "suzluk": 7552,
  "suÃ§": 42257,
  "sw": 44088,
  "sy": 11575,
  "sych": 36654,
  "sÃ®": 24418,
  "sÃ¶r": 9057,
  "sÃ¶rÃ¼": 19168,
  "sÃ¶z": 12952,
  "sÃ¼": 8403,
  "sÃ¼l": 44407,
  "sÃ¼m": 42803,
  "sÃ¼n": 9864,
  "sÃ¼nÃ¼z": 16096,
  "sÃ¼per": 49504,
  "sÃ¼r": 16486,
  "sÃ¼t": 46030,
  "sÃ¼z": 4431,
  "sÃ¼zlÃ¼k": 20774,
  "sÄ": 3469,
  "sÄ±": 3476,
  "sÄ±cak": 38836,
  "sÄ±k": 20672,
  "sÄ±kÄ": 37862,
  "sÄ±kÄ±": 37865,
  "sÄ±l": 39530,
  "sÄ±m": 35243,
  "sÄ±n": 2315,
  "sÄ±na": 37482,
  "sÄ±nda": 48833,
  "sÄ±nlar": 16812,
  "sÄ±nÄ±": 31175,
  "sÄ±nÄ±f": 25710,
  "sÄ±nÄ±n": 35914,
  "sÄ±nÄ±z": 2274,
  "sÄ±r": 22527,
  "sÄ±yla": 39976,
  "sÄ±z": 1007,
  "sÄ±zlÄ±k": 3528,
  "sÄ±zlÄ±ÄŁÄ±": 33750,
  "sÄ±zÄ±n": 6303,
  "t": 84,
  "ta": 491,
  "tab": 22020,
  "tabi": 47570,
  "tad": 703,
  "tada": 19199,
  "tadaki": 28203,
  "tadan": 3547,
  "tadir": 37534,
  "tadoÄŁu": 9082,
  "tadÄ±r": 764,
  "tag": 23337,
  "tage": 19751,
  "tagon": 29216,
  "tah": 9537,
  "tain": 17591,
  "tainment": 36949,
  "taj": 1814,
  "tak": 3548,
  "taki": 3730,
  "takya": 22114,
  "takÄ±m": 9516,
  "tal": 1252,
  "talama": 11544,
  "talar": 29671,
  "talay": 22091,
  "tali": 20820,
  "taliano": 47978,
  "taly": 43295,
  "talya": 2588,
  "talyan": 8375,
  "talyaspor": 17313,
  "talÄ±k": 46018,
  "tam": 17453,
  "tamam": 35541,
  "tan": 526,
  "tana": 35158,
  "tancÄ±oÄŁlu": 42831,
  "tand": 3148,
  "tandart": 3442,
  "tane": 15216,
  "tanesi": 46729,
  "tanik": 34355,
  "tansiy": 4762,
  "tansiyel": 34608,
  "tansiyon": 17902,
  "tantik": 33529,
  "tanÄ±": 24520,
  "tanÄ±n": 5528,
  "tanÄ±z": 47136,
  "tap": 21738,
  "tar": 926,
  "tara": 25561,
  "taraf": 12860,
  "tarafÄ±ndan": 29940,
  "tarih": 21835,
  "tarÄ±": 4184,
  "tas": 14509,
  "tasar": 41613,
  "tasiye": 27522,
  "tasÄ±nÄ±z": 40312,
  "tat": 47714,
  "tatÃ¶r": 19019,
  "taur": 14793,
  "taurant": 15896,
  "tav": 27828,
  "tay": 2447,
  "taya": 25842,
  "taydÄ±": 12206,
  "tayken": 40475,
  "tayÄ±": 20249,
  "tayÄ±m": 21306,
  "tayÄ±z": 6559,
  "taz": 33924,
  "taÃ§": 26062,
  "taÅŁ": 2301,
  "taÅŁÄ": 39939,
  "taÅŁÄ±": 39943,
  "tc": 22512,
  "td": 12158,
  "te": 497,
  "team": 31746,
  "teb": 13135,
  "tec": 37584,
  "tech": 27821,
  "ted": 25030,
  "tedir": 14404,
  "tef": 30524,
  "tefik": 14260,
  "tegr": 18968,
  "tegral": 37571,
  "tegre": 33109,
  "teh": 33548,
  "tein": 6688,
  "tek": 6030,
  "teki": 3179,
  "tekin": 17980,
  "teknik": 43709,
  "tel": 4220,
  "telefon": 40453,
  "teliÄŁi": 42179,
  "tem": 1528,
  "tember": 50060,
  "teme": 44403,
  "temel": 49806,
  "temis": 35273,
  "temiz": 15128,
  "ten": 820,
  "tendo": 36062,
  "tenham": 44495,
  "tenin": 43438,
  "tent": 14282,
  "tep": 2440,
  "tepe": 4217,
  "ter": 580,
  "terap": 36524,
  "terapi": 27967,
  "tere": 3462,
  "terek": 3758,
  "terem": 33539,
  "tereo": 40793,
  "teri": 7272,
  "teriyel": 34652,
  "tern": 3099,
  "ternal": 49127,
  "ternasyonal": 39497,
  "ternatif": 4067,
  "ternational": 12922,
  "ternet": 1470,
  "ters": 26920,
  "terÃ¶r": 25406,
  "tes": 15888,
  "tesi": 11178,
  "test": 32393,
  "tex": 32113,
  "text": 32808,
  "tez": 37663,
  "teÅŁ": 25170,
  "th": 4785,
  "the": 19672,
  "ti": 406,
  "tia": 13361,
  "tial": 32513,
  "tian": 19820,
  "tiano": 49388,
  "tib": 38498,
  "tibar": 37808,
  "tibat": 40310,
  "tic": 4046,
  "tica": 27705,
  "tical": 44710,
  "ticaret": 7738,
  "tice": 45213,
  "tici": 21181,
  "tick": 46158,
  "ticker": 35788,
  "ticle": 26570,
  "tics": 17246,
  "tid": 25130,
  "tidar": 14748,
  "tie": 40649,
  "ties": 46645,
  "tif": 1494,
  "tifak": 6278,
  "tific": 39164,
  "tifik": 6527,
  "tifika": 13886,
  "tify": 24323,
  "tig": 22125,
  "tigi": 40544,
  "tih": 7244,
  "tihad": 41572,
  "tihan": 21081,
  "tihar": 9018,
  "tihat": 20242,
  "tij": 15310,
  "tik": 1076,
  "tiket": 15229,
  "tiketler": 4917,
  "tikleri": 8497,
  "tiklerini": 18429,
  "tikten": 7290,
  "tikÃ§e": 7419,
  "til": 19262,
  "tiler": 3600,
  "tim": 1962,
  "timate": 41869,
  "time": 29191,
  "timedya": 41439,
  "times": 37076,
  "timesgut": 41546,
  "tin": 1894,
  "tina": 22186,
  "ting": 11088,
  "tings": 49760,
  "tiniz": 12276,
  "tinue": 28918,
  "tion": 3689,
  "tions": 11115,
  "tip": 7770,
  "tir": 449,
  "tirak": 46139,
  "tiren": 35791,
  "tirme": 48113,
  "tis": 4297,
  "tisiz": 10180,
  "tit": 24901,
  "title": 44927,
  "tiv": 2046,
  "tiva": 26843,
  "tivasyon": 11453,
  "tive": 8529,
  "tivirÃ¼s": 35174,
  "tivit": 36429,
  "tivite": 31918,
  "tiy": 11523,
  "tiyar": 38307,
  "tiyaz": 25082,
  "tiz": 13435,
  "tiÃ§": 32282,
  "tiÃ§i": 17005,
  "tiÄŁ": 1165,
  "tiÄŁi": 1837,
  "tiÄŁim": 8585,
  "tiÄŁimi": 48461,
  "tiÄŁimiz": 2871,
  "tiÄŁin": 20411,
  "tiÄŁinde": 9274,
  "tiÄŁinden": 30722,
  "tiÄŁine": 20444,
  "tiÄŁini": 2247,
  "tiÄŁinin": 36933,
  "tiÄŁiniz": 7841,
  "tiÄŁinizde": 26460,
  "tiÅŁ": 13271,
  "tl": 20763,
  "tle": 15761,
  "tme": 26885,
  "to": 2545,
  "tok": 18050,
  "tom": 37055,
  "ton": 3081,
  "top": 6134,
  "toplum": 32528,
  "toprak": 41744,
  "tor": 7766,
  "tory": 49613,
  "totip": 25859,
  "toz": 43328,
  "tp": 2749,
  "tps": 4482,
  "tr": 731,
  "tra": 10223,
  "traf": 17104,
  "trak": 30395,
  "tral": 7842,
  "trans": 30172,
  "tre": 7237,
  "tren": 5638,
  "tric": 32381,
  "trik": 26141,
  "trit": 39194,
  "tro": 34300,
[...]
